node {
  name: "Const"
  op: "Const"
  attr {
    key: "dtype"
    value {
      type: DT_INT32
    }
  }
  attr {
    key: "value"
    value {
      tensor {
        dtype: DT_INT32
        tensor_shape {
          dim {
            size: 100
          }
          dim {
            size: 10
          }
        }
        tensor_content: "\000\000\000\000\001\000\000\000\002\000\000\000\003\000\000\000\004\000\000\000\005\000\000\000\006\000\000\000\007\000\000\000\010\000\000\000\t\000\000\000\000\000\000\000\001\000\000\000\002\000\000\000\003\000\000\000\004\000\000\000\005\000\000\000\006\000\000\000\007\000\000\000\010\000\000\000\t\000\000\000\000\000\000\000\001\000\000\000\002\000\000\000\003\000\000\000\004\000\000\000\005\000\000\000\006\000\000\000\007\000\000\000\010\000\000\000\t\000\000\000\000\000\000\000\001\000\000\000\002\000\000\000\003\000\000\000\004\000\000\000\005\000\000\000\006\000\000\000\007\000\000\000\010\000\000\000\t\000\000\000\000\000\000\000\001\000\000\000\002\000\000\000\003\000\000\000\004\000\000\000\005\000\000\000\006\000\000\000\007\000\000\000\010\000\000\000\t\000\000\000\000\000\000\000\001\000\000\000\002\000\000\000\003\000\000\000\004\000\000\000\005\000\000\000\006\000\000\000\007\000\000\000\010\000\000\000\t\000\000\000\000\000\000\000\001\000\000\000\002\000\000\000\003\000\000\000\004\000\000\000\005\000\000\000\006\000\000\000\007\000\000\000\010\000\000\000\t\000\000\000\000\000\000\000\001\000\000\000\002\000\000\000\003\000\000\000\004\000\000\000\005\000\000\000\006\000\000\000\007\000\000\000\010\000\000\000\t\000\000\000\000\000\000\000\001\000\000\000\002\000\000\000\003\000\000\000\004\000\000\000\005\000\000\000\006\000\000\000\007\000\000\000\010\000\000\000\t\000\000\000\000\000\000\000\001\000\000\000\002\000\000\000\003\000\000\000\004\000\000\000\005\000\000\000\006\000\000\000\007\000\000\000\010\000\000\000\t\000\000\000\000\000\000\000\001\000\000\000\002\000\000\000\003\000\000\000\004\000\000\000\005\000\000\000\006\000\000\000\007\000\000\000\010\000\000\000\t\000\000\000\000\000\000\000\001\000\000\000\002\000\000\000\003\000\000\000\004\000\000\000\005\000\000\000\006\000\000\000\007\000\000\000\010\000\000\000\t\000\000\000\000\000\000\000\001\000\000\000\002\000\000\000\003\000\000\000\004\000\000\000\005\000\000\000\006\000\000\000\007\000\000\000\010\000\000\000\t\000\000\000\000\000\000\000\001\000\000\000\002\000\000\000\003\000\000\000\004\000\000\000\005\000\000\000\006\000\000\000\007\000\000\000\010\000\000\000\t\000\000\000\000\000\000\000\001\000\000\000\002\000\000\000\003\000\000\000\004\000\000\000\005\000\000\000\006\000\000\000\007\000\000\000\010\000\000\000\t\000\000\000\000\000\000\000\001\000\000\000\002\000\000\000\003\000\000\000\004\000\000\000\005\000\000\000\006\000\000\000\007\000\000\000\010\000\000\000\t\000\000\000\000\000\000\000\001\000\000\000\002\000\000\000\003\000\000\000\004\000\000\000\005\000\000\000\006\000\000\000\007\000\000\000\010\000\000\000\t\000\000\000\000\000\000\000\001\000\000\000\002\000\000\000\003\000\000\000\004\000\000\000\005\000\000\000\006\000\000\000\007\000\000\000\010\000\000\000\t\000\000\000\000\000\000\000\001\000\000\000\002\000\000\000\003\000\000\000\004\000\000\000\005\000\000\000\006\000\000\000\007\000\000\000\010\000\000\000\t\000\000\000\000\000\000\000\001\000\000\000\002\000\000\000\003\000\000\000\004\000\000\000\005\000\000\000\006\000\000\000\007\000\000\000\010\000\000\000\t\000\000\000\000\000\000\000\001\000\000\000\002\000\000\000\003\000\000\000\004\000\000\000\005\000\000\000\006\000\000\000\007\000\000\000\010\000\000\000\t\000\000\000\000\000\000\000\001\000\000\000\002\000\000\000\003\000\000\000\004\000\000\000\005\000\000\000\006\000\000\000\007\000\000\000\010\000\000\000\t\000\000\000\000\000\000\000\001\000\000\000\002\000\000\000\003\000\000\000\004\000\000\000\005\000\000\000\006\000\000\000\007\000\000\000\010\000\000\000\t\000\000\000\000\000\000\000\001\000\000\000\002\000\000\000\003\000\000\000\004\000\000\000\005\000\000\000\006\000\000\000\007\000\000\000\010\000\000\000\t\000\000\000\000\000\000\000\001\000\000\000\002\000\000\000\003\000\000\000\004\000\000\000\005\000\000\000\006\000\000\000\007\000\000\000\010\000\000\000\t\000\000\000\000\000\000\000\001\000\000\000\002\000\000\000\003\000\000\000\004\000\000\000\005\000\000\000\006\000\000\000\007\000\000\000\010\000\000\000\t\000\000\000\000\000\000\000\001\000\000\000\002\000\000\000\003\000\000\000\004\000\000\000\005\000\000\000\006\000\000\000\007\000\000\000\010\000\000\000\t\000\000\000\000\000\000\000\001\000\000\000\002\000\000\000\003\000\000\000\004\000\000\000\005\000\000\000\006\000\000\000\007\000\000\000\010\000\000\000\t\000\000\000\000\000\000\000\001\000\000\000\002\000\000\000\003\000\000\000\004\000\000\000\005\000\000\000\006\000\000\000\007\000\000\000\010\000\000\000\t\000\000\000\000\000\000\000\001\000\000\000\002\000\000\000\003\000\000\000\004\000\000\000\005\000\000\000\006\000\000\000\007\000\000\000\010\000\000\000\t\000\000\000\000\000\000\000\001\000\000\000\002\000\000\000\003\000\000\000\004\000\000\000\005\000\000\000\006\000\000\000\007\000\000\000\010\000\000\000\t\000\000\000\000\000\000\000\001\000\000\000\002\000\000\000\003\000\000\000\004\000\000\000\005\000\000\000\006\000\000\000\007\000\000\000\010\000\000\000\t\000\000\000\000\000\000\000\001\000\000\000\002\000\000\000\003\000\000\000\004\000\000\000\005\000\000\000\006\000\000\000\007\000\000\000\010\000\000\000\t\000\000\000\000\000\000\000\001\000\000\000\002\000\000\000\003\000\000\000\004\000\000\000\005\000\000\000\006\000\000\000\007\000\000\000\010\000\000\000\t\000\000\000\000\000\000\000\001\000\000\000\002\000\000\000\003\000\000\000\004\000\000\000\005\000\000\000\006\000\000\000\007\000\000\000\010\000\000\000\t\000\000\000\000\000\000\000\001\000\000\000\002\000\000\000\003\000\000\000\004\000\000\000\005\000\000\000\006\000\000\000\007\000\000\000\010\000\000\000\t\000\000\000\000\000\000\000\001\000\000\000\002\000\000\000\003\000\000\000\004\000\000\000\005\000\000\000\006\000\000\000\007\000\000\000\010\000\000\000\t\000\000\000\000\000\000\000\001\000\000\000\002\000\000\000\003\000\000\000\004\000\000\000\005\000\000\000\006\000\000\000\007\000\000\000\010\000\000\000\t\000\000\000\000\000\000\000\001\000\000\000\002\000\000\000\003\000\000\000\004\000\000\000\005\000\000\000\006\000\000\000\007\000\000\000\010\000\000\000\t\000\000\000\000\000\000\000\001\000\000\000\002\000\000\000\003\000\000\000\004\000\000\000\005\000\000\000\006\000\000\000\007\000\000\000\010\000\000\000\t\000\000\000\000\000\000\000\001\000\000\000\002\000\000\000\003\000\000\000\004\000\000\000\005\000\000\000\006\000\000\000\007\000\000\000\010\000\000\000\t\000\000\000\000\000\000\000\001\000\000\000\002\000\000\000\003\000\000\000\004\000\000\000\005\000\000\000\006\000\000\000\007\000\000\000\010\000\000\000\t\000\000\000\000\000\000\000\001\000\000\000\002\000\000\000\003\000\000\000\004\000\000\000\005\000\000\000\006\000\000\000\007\000\000\000\010\000\000\000\t\000\000\000\000\000\000\000\001\000\000\000\002\000\000\000\003\000\000\000\004\000\000\000\005\000\000\000\006\000\000\000\007\000\000\000\010\000\000\000\t\000\000\000\000\000\000\000\001\000\000\000\002\000\000\000\003\000\000\000\004\000\000\000\005\000\000\000\006\000\000\000\007\000\000\000\010\000\000\000\t\000\000\000\000\000\000\000\001\000\000\000\002\000\000\000\003\000\000\000\004\000\000\000\005\000\000\000\006\000\000\000\007\000\000\000\010\000\000\000\t\000\000\000\000\000\000\000\001\000\000\000\002\000\000\000\003\000\000\000\004\000\000\000\005\000\000\000\006\000\000\000\007\000\000\000\010\000\000\000\t\000\000\000\000\000\000\000\001\000\000\000\002\000\000\000\003\000\000\000\004\000\000\000\005\000\000\000\006\000\000\000\007\000\000\000\010\000\000\000\t\000\000\000\000\000\000\000\001\000\000\000\002\000\000\000\003\000\000\000\004\000\000\000\005\000\000\000\006\000\000\000\007\000\000\000\010\000\000\000\t\000\000\000\000\000\000\000\001\000\000\000\002\000\000\000\003\000\000\000\004\000\000\000\005\000\000\000\006\000\000\000\007\000\000\000\010\000\000\000\t\000\000\000\000\000\000\000\001\000\000\000\002\000\000\000\003\000\000\000\004\000\000\000\005\000\000\000\006\000\000\000\007\000\000\000\010\000\000\000\t\000\000\000\000\000\000\000\001\000\000\000\002\000\000\000\003\000\000\000\004\000\000\000\005\000\000\000\006\000\000\000\007\000\000\000\010\000\000\000\t\000\000\000\000\000\000\000\001\000\000\000\002\000\000\000\003\000\000\000\004\000\000\000\005\000\000\000\006\000\000\000\007\000\000\000\010\000\000\000\t\000\000\000\000\000\000\000\001\000\000\000\002\000\000\000\003\000\000\000\004\000\000\000\005\000\000\000\006\000\000\000\007\000\000\000\010\000\000\000\t\000\000\000\000\000\000\000\001\000\000\000\002\000\000\000\003\000\000\000\004\000\000\000\005\000\000\000\006\000\000\000\007\000\000\000\010\000\000\000\t\000\000\000\000\000\000\000\001\000\000\000\002\000\000\000\003\000\000\000\004\000\000\000\005\000\000\000\006\000\000\000\007\000\000\000\010\000\000\000\t\000\000\000\000\000\000\000\001\000\000\000\002\000\000\000\003\000\000\000\004\000\000\000\005\000\000\000\006\000\000\000\007\000\000\000\010\000\000\000\t\000\000\000\000\000\000\000\001\000\000\000\002\000\000\000\003\000\000\000\004\000\000\000\005\000\000\000\006\000\000\000\007\000\000\000\010\000\000\000\t\000\000\000\000\000\000\000\001\000\000\000\002\000\000\000\003\000\000\000\004\000\000\000\005\000\000\000\006\000\000\000\007\000\000\000\010\000\000\000\t\000\000\000\000\000\000\000\001\000\000\000\002\000\000\000\003\000\000\000\004\000\000\000\005\000\000\000\006\000\000\000\007\000\000\000\010\000\000\000\t\000\000\000\000\000\000\000\001\000\000\000\002\000\000\000\003\000\000\000\004\000\000\000\005\000\000\000\006\000\000\000\007\000\000\000\010\000\000\000\t\000\000\000\000\000\000\000\001\000\000\000\002\000\000\000\003\000\000\000\004\000\000\000\005\000\000\000\006\000\000\000\007\000\000\000\010\000\000\000\t\000\000\000\000\000\000\000\001\000\000\000\002\000\000\000\003\000\000\000\004\000\000\000\005\000\000\000\006\000\000\000\007\000\000\000\010\000\000\000\t\000\000\000\000\000\000\000\001\000\000\000\002\000\000\000\003\000\000\000\004\000\000\000\005\000\000\000\006\000\000\000\007\000\000\000\010\000\000\000\t\000\000\000\000\000\000\000\001\000\000\000\002\000\000\000\003\000\000\000\004\000\000\000\005\000\000\000\006\000\000\000\007\000\000\000\010\000\000\000\t\000\000\000\000\000\000\000\001\000\000\000\002\000\000\000\003\000\000\000\004\000\000\000\005\000\000\000\006\000\000\000\007\000\000\000\010\000\000\000\t\000\000\000\000\000\000\000\001\000\000\000\002\000\000\000\003\000\000\000\004\000\000\000\005\000\000\000\006\000\000\000\007\000\000\000\010\000\000\000\t\000\000\000\000\000\000\000\001\000\000\000\002\000\000\000\003\000\000\000\004\000\000\000\005\000\000\000\006\000\000\000\007\000\000\000\010\000\000\000\t\000\000\000\000\000\000\000\001\000\000\000\002\000\000\000\003\000\000\000\004\000\000\000\005\000\000\000\006\000\000\000\007\000\000\000\010\000\000\000\t\000\000\000\000\000\000\000\001\000\000\000\002\000\000\000\003\000\000\000\004\000\000\000\005\000\000\000\006\000\000\000\007\000\000\000\010\000\000\000\t\000\000\000\000\000\000\000\001\000\000\000\002\000\000\000\003\000\000\000\004\000\000\000\005\000\000\000\006\000\000\000\007\000\000\000\010\000\000\000\t\000\000\000\000\000\000\000\001\000\000\000\002\000\000\000\003\000\000\000\004\000\000\000\005\000\000\000\006\000\000\000\007\000\000\000\010\000\000\000\t\000\000\000\000\000\000\000\001\000\000\000\002\000\000\000\003\000\000\000\004\000\000\000\005\000\000\000\006\000\000\000\007\000\000\000\010\000\000\000\t\000\000\000\000\000\000\000\001\000\000\000\002\000\000\000\003\000\000\000\004\000\000\000\005\000\000\000\006\000\000\000\007\000\000\000\010\000\000\000\t\000\000\000\000\000\000\000\001\000\000\000\002\000\000\000\003\000\000\000\004\000\000\000\005\000\000\000\006\000\000\000\007\000\000\000\010\000\000\000\t\000\000\000\000\000\000\000\001\000\000\000\002\000\000\000\003\000\000\000\004\000\000\000\005\000\000\000\006\000\000\000\007\000\000\000\010\000\000\000\t\000\000\000\000\000\000\000\001\000\000\000\002\000\000\000\003\000\000\000\004\000\000\000\005\000\000\000\006\000\000\000\007\000\000\000\010\000\000\000\t\000\000\000\000\000\000\000\001\000\000\000\002\000\000\000\003\000\000\000\004\000\000\000\005\000\000\000\006\000\000\000\007\000\000\000\010\000\000\000\t\000\000\000\000\000\000\000\001\000\000\000\002\000\000\000\003\000\000\000\004\000\000\000\005\000\000\000\006\000\000\000\007\000\000\000\010\000\000\000\t\000\000\000\000\000\000\000\001\000\000\000\002\000\000\000\003\000\000\000\004\000\000\000\005\000\000\000\006\000\000\000\007\000\000\000\010\000\000\000\t\000\000\000\000\000\000\000\001\000\000\000\002\000\000\000\003\000\000\000\004\000\000\000\005\000\000\000\006\000\000\000\007\000\000\000\010\000\000\000\t\000\000\000\000\000\000\000\001\000\000\000\002\000\000\000\003\000\000\000\004\000\000\000\005\000\000\000\006\000\000\000\007\000\000\000\010\000\000\000\t\000\000\000\000\000\000\000\001\000\000\000\002\000\000\000\003\000\000\000\004\000\000\000\005\000\000\000\006\000\000\000\007\000\000\000\010\000\000\000\t\000\000\000\000\000\000\000\001\000\000\000\002\000\000\000\003\000\000\000\004\000\000\000\005\000\000\000\006\000\000\000\007\000\000\000\010\000\000\000\t\000\000\000\000\000\000\000\001\000\000\000\002\000\000\000\003\000\000\000\004\000\000\000\005\000\000\000\006\000\000\000\007\000\000\000\010\000\000\000\t\000\000\000\000\000\000\000\001\000\000\000\002\000\000\000\003\000\000\000\004\000\000\000\005\000\000\000\006\000\000\000\007\000\000\000\010\000\000\000\t\000\000\000\000\000\000\000\001\000\000\000\002\000\000\000\003\000\000\000\004\000\000\000\005\000\000\000\006\000\000\000\007\000\000\000\010\000\000\000\t\000\000\000\000\000\000\000\001\000\000\000\002\000\000\000\003\000\000\000\004\000\000\000\005\000\000\000\006\000\000\000\007\000\000\000\010\000\000\000\t\000\000\000\000\000\000\000\001\000\000\000\002\000\000\000\003\000\000\000\004\000\000\000\005\000\000\000\006\000\000\000\007\000\000\000\010\000\000\000\t\000\000\000\000\000\000\000\001\000\000\000\002\000\000\000\003\000\000\000\004\000\000\000\005\000\000\000\006\000\000\000\007\000\000\000\010\000\000\000\t\000\000\000\000\000\000\000\001\000\000\000\002\000\000\000\003\000\000\000\004\000\000\000\005\000\000\000\006\000\000\000\007\000\000\000\010\000\000\000\t\000\000\000\000\000\000\000\001\000\000\000\002\000\000\000\003\000\000\000\004\000\000\000\005\000\000\000\006\000\000\000\007\000\000\000\010\000\000\000\t\000\000\000\000\000\000\000\001\000\000\000\002\000\000\000\003\000\000\000\004\000\000\000\005\000\000\000\006\000\000\000\007\000\000\000\010\000\000\000\t\000\000\000\000\000\000\000\001\000\000\000\002\000\000\000\003\000\000\000\004\000\000\000\005\000\000\000\006\000\000\000\007\000\000\000\010\000\000\000\t\000\000\000\000\000\000\000\001\000\000\000\002\000\000\000\003\000\000\000\004\000\000\000\005\000\000\000\006\000\000\000\007\000\000\000\010\000\000\000\t\000\000\000\000\000\000\000\001\000\000\000\002\000\000\000\003\000\000\000\004\000\000\000\005\000\000\000\006\000\000\000\007\000\000\000\010\000\000\000\t\000\000\000\000\000\000\000\001\000\000\000\002\000\000\000\003\000\000\000\004\000\000\000\005\000\000\000\006\000\000\000\007\000\000\000\010\000\000\000\t\000\000\000\000\000\000\000\001\000\000\000\002\000\000\000\003\000\000\000\004\000\000\000\005\000\000\000\006\000\000\000\007\000\000\000\010\000\000\000\t\000\000\000\000\000\000\000\001\000\000\000\002\000\000\000\003\000\000\000\004\000\000\000\005\000\000\000\006\000\000\000\007\000\000\000\010\000\000\000\t\000\000\000\000\000\000\000\001\000\000\000\002\000\000\000\003\000\000\000\004\000\000\000\005\000\000\000\006\000\000\000\007\000\000\000\010\000\000\000\t\000\000\000"
      }
    }
  }
}
node {
  name: "Const_1"
  op: "Const"
  attr {
    key: "dtype"
    value {
      type: DT_INT32
    }
  }
  attr {
    key: "value"
    value {
      tensor {
        dtype: DT_INT32
        tensor_shape {
          dim {
            size: 10
          }
          dim {
            size: 10
          }
        }
        int_val: 0
      }
    }
  }
}
node {
  name: "dense/kernel"
  op: "VariableV2"
  attr {
    key: "container"
    value {
      s: ""
    }
  }
  attr {
    key: "dtype"
    value {
      type: DT_INT32
    }
  }
  attr {
    key: "shape"
    value {
      shape {
        dim {
          size: 10
        }
        dim {
          size: 10
        }
      }
    }
  }
  attr {
    key: "shared_name"
    value {
      s: ""
    }
  }
}
node {
  name: "dense/kernel/Assign"
  op: "Assign"
  input: "dense/kernel"
  input: "Const_1"
  attr {
    key: "T"
    value {
      type: DT_INT32
    }
  }
  attr {
    key: "_class"
    value {
      list {
        s: "loc:@dense/kernel"
      }
    }
  }
  attr {
    key: "use_locking"
    value {
      b: true
    }
  }
  attr {
    key: "validate_shape"
    value {
      b: true
    }
  }
}
node {
  name: "dense/kernel/read"
  op: "Identity"
  input: "dense/kernel"
  attr {
    key: "T"
    value {
      type: DT_INT32
    }
  }
  attr {
    key: "_class"
    value {
      list {
        s: "loc:@dense/kernel"
      }
    }
  }
}
node {
  name: "dense/bias/Initializer/Const"
  op: "Const"
  attr {
    key: "_class"
    value {
      list {
        s: "loc:@dense/bias"
      }
    }
  }
  attr {
    key: "dtype"
    value {
      type: DT_INT32
    }
  }
  attr {
    key: "value"
    value {
      tensor {
        dtype: DT_INT32
        tensor_shape {
          dim {
            size: 10
          }
        }
        int_val: 0
      }
    }
  }
}
node {
  name: "dense/bias"
  op: "VariableV2"
  attr {
    key: "_class"
    value {
      list {
        s: "loc:@dense/bias"
      }
    }
  }
  attr {
    key: "container"
    value {
      s: ""
    }
  }
  attr {
    key: "dtype"
    value {
      type: DT_INT32
    }
  }
  attr {
    key: "shape"
    value {
      shape {
        dim {
          size: 10
        }
      }
    }
  }
  attr {
    key: "shared_name"
    value {
      s: ""
    }
  }
}
node {
  name: "dense/bias/Assign"
  op: "Assign"
  input: "dense/bias"
  input: "dense/bias/Initializer/Const"
  attr {
    key: "T"
    value {
      type: DT_INT32
    }
  }
  attr {
    key: "_class"
    value {
      list {
        s: "loc:@dense/bias"
      }
    }
  }
  attr {
    key: "use_locking"
    value {
      b: true
    }
  }
  attr {
    key: "validate_shape"
    value {
      b: true
    }
  }
}
node {
  name: "dense/bias/read"
  op: "Identity"
  input: "dense/bias"
  attr {
    key: "T"
    value {
      type: DT_INT32
    }
  }
  attr {
    key: "_class"
    value {
      list {
        s: "loc:@dense/bias"
      }
    }
  }
}
node {
  name: "dense/MatMul"
  op: "MatMul"
  input: "Const"
  input: "dense/kernel/read"
  attr {
    key: "T"
    value {
      type: DT_INT32
    }
  }
  attr {
    key: "transpose_a"
    value {
      b: false
    }
  }
  attr {
    key: "transpose_b"
    value {
      b: false
    }
  }
}
node {
  name: "dense/BiasAdd"
  op: "BiasAdd"
  input: "dense/MatMul"
  input: "dense/bias/read"
  attr {
    key: "T"
    value {
      type: DT_INT32
    }
  }
  attr {
    key: "data_format"
    value {
      s: "NHWC"
    }
  }
}
node {
  name: "Const_2"
  op: "Const"
  attr {
    key: "dtype"
    value {
      type: DT_INT32
    }
  }
  attr {
    key: "value"
    value {
      tensor {
        dtype: DT_INT32
        tensor_shape {
          dim {
            size: 10
          }
          dim {
            size: 10
          }
        }
        int_val: 0
      }
    }
  }
}
node {
  name: "dense_1/kernel"
  op: "VariableV2"
  attr {
    key: "container"
    value {
      s: ""
    }
  }
  attr {
    key: "dtype"
    value {
      type: DT_INT32
    }
  }
  attr {
    key: "shape"
    value {
      shape {
        dim {
          size: 10
        }
        dim {
          size: 10
        }
      }
    }
  }
  attr {
    key: "shared_name"
    value {
      s: ""
    }
  }
}
node {
  name: "dense_1/kernel/Assign"
  op: "Assign"
  input: "dense_1/kernel"
  input: "Const_2"
  attr {
    key: "T"
    value {
      type: DT_INT32
    }
  }
  attr {
    key: "_class"
    value {
      list {
        s: "loc:@dense_1/kernel"
      }
    }
  }
  attr {
    key: "use_locking"
    value {
      b: true
    }
  }
  attr {
    key: "validate_shape"
    value {
      b: true
    }
  }
}
node {
  name: "dense_1/kernel/read"
  op: "Identity"
  input: "dense_1/kernel"
  attr {
    key: "T"
    value {
      type: DT_INT32
    }
  }
  attr {
    key: "_class"
    value {
      list {
        s: "loc:@dense_1/kernel"
      }
    }
  }
}
node {
  name: "dense_1/bias/Initializer/Const"
  op: "Const"
  attr {
    key: "_class"
    value {
      list {
        s: "loc:@dense_1/bias"
      }
    }
  }
  attr {
    key: "dtype"
    value {
      type: DT_INT32
    }
  }
  attr {
    key: "value"
    value {
      tensor {
        dtype: DT_INT32
        tensor_shape {
          dim {
            size: 10
          }
        }
        int_val: 0
      }
    }
  }
}
node {
  name: "dense_1/bias"
  op: "VariableV2"
  attr {
    key: "_class"
    value {
      list {
        s: "loc:@dense_1/bias"
      }
    }
  }
  attr {
    key: "container"
    value {
      s: ""
    }
  }
  attr {
    key: "dtype"
    value {
      type: DT_INT32
    }
  }
  attr {
    key: "shape"
    value {
      shape {
        dim {
          size: 10
        }
      }
    }
  }
  attr {
    key: "shared_name"
    value {
      s: ""
    }
  }
}
node {
  name: "dense_1/bias/Assign"
  op: "Assign"
  input: "dense_1/bias"
  input: "dense_1/bias/Initializer/Const"
  attr {
    key: "T"
    value {
      type: DT_INT32
    }
  }
  attr {
    key: "_class"
    value {
      list {
        s: "loc:@dense_1/bias"
      }
    }
  }
  attr {
    key: "use_locking"
    value {
      b: true
    }
  }
  attr {
    key: "validate_shape"
    value {
      b: true
    }
  }
}
node {
  name: "dense_1/bias/read"
  op: "Identity"
  input: "dense_1/bias"
  attr {
    key: "T"
    value {
      type: DT_INT32
    }
  }
  attr {
    key: "_class"
    value {
      list {
        s: "loc:@dense_1/bias"
      }
    }
  }
}
node {
  name: "dense_2/MatMul"
  op: "MatMul"
  input: "dense/BiasAdd"
  input: "dense_1/kernel/read"
  attr {
    key: "T"
    value {
      type: DT_INT32
    }
  }
  attr {
    key: "transpose_a"
    value {
      b: false
    }
  }
  attr {
    key: "transpose_b"
    value {
      b: false
    }
  }
}
node {
  name: "dense_2/BiasAdd"
  op: "BiasAdd"
  input: "dense_2/MatMul"
  input: "dense_1/bias/read"
  attr {
    key: "T"
    value {
      type: DT_INT32
    }
  }
  attr {
    key: "data_format"
    value {
      s: "NHWC"
    }
  }
}
node {
  name: "Const_3"
  op: "Const"
  attr {
    key: "dtype"
    value {
      type: DT_INT32
    }
  }
  attr {
    key: "value"
    value {
      tensor {
        dtype: DT_INT32
        tensor_shape {
          dim {
            size: 10
          }
          dim {
            size: 10
          }
        }
        int_val: 0
      }
    }
  }
}
node {
  name: "dense_2/kernel"
  op: "VariableV2"
  attr {
    key: "container"
    value {
      s: ""
    }
  }
  attr {
    key: "dtype"
    value {
      type: DT_INT32
    }
  }
  attr {
    key: "shape"
    value {
      shape {
        dim {
          size: 10
        }
        dim {
          size: 10
        }
      }
    }
  }
  attr {
    key: "shared_name"
    value {
      s: ""
    }
  }
}
node {
  name: "dense_2/kernel/Assign"
  op: "Assign"
  input: "dense_2/kernel"
  input: "Const_3"
  attr {
    key: "T"
    value {
      type: DT_INT32
    }
  }
  attr {
    key: "_class"
    value {
      list {
        s: "loc:@dense_2/kernel"
      }
    }
  }
  attr {
    key: "use_locking"
    value {
      b: true
    }
  }
  attr {
    key: "validate_shape"
    value {
      b: true
    }
  }
}
node {
  name: "dense_2/kernel/read"
  op: "Identity"
  input: "dense_2/kernel"
  attr {
    key: "T"
    value {
      type: DT_INT32
    }
  }
  attr {
    key: "_class"
    value {
      list {
        s: "loc:@dense_2/kernel"
      }
    }
  }
}
node {
  name: "dense_2/bias/Initializer/Const"
  op: "Const"
  attr {
    key: "_class"
    value {
      list {
        s: "loc:@dense_2/bias"
      }
    }
  }
  attr {
    key: "dtype"
    value {
      type: DT_INT32
    }
  }
  attr {
    key: "value"
    value {
      tensor {
        dtype: DT_INT32
        tensor_shape {
          dim {
            size: 10
          }
        }
        int_val: 0
      }
    }
  }
}
node {
  name: "dense_2/bias"
  op: "VariableV2"
  attr {
    key: "_class"
    value {
      list {
        s: "loc:@dense_2/bias"
      }
    }
  }
  attr {
    key: "container"
    value {
      s: ""
    }
  }
  attr {
    key: "dtype"
    value {
      type: DT_INT32
    }
  }
  attr {
    key: "shape"
    value {
      shape {
        dim {
          size: 10
        }
      }
    }
  }
  attr {
    key: "shared_name"
    value {
      s: ""
    }
  }
}
node {
  name: "dense_2/bias/Assign"
  op: "Assign"
  input: "dense_2/bias"
  input: "dense_2/bias/Initializer/Const"
  attr {
    key: "T"
    value {
      type: DT_INT32
    }
  }
  attr {
    key: "_class"
    value {
      list {
        s: "loc:@dense_2/bias"
      }
    }
  }
  attr {
    key: "use_locking"
    value {
      b: true
    }
  }
  attr {
    key: "validate_shape"
    value {
      b: true
    }
  }
}
node {
  name: "dense_2/bias/read"
  op: "Identity"
  input: "dense_2/bias"
  attr {
    key: "T"
    value {
      type: DT_INT32
    }
  }
  attr {
    key: "_class"
    value {
      list {
        s: "loc:@dense_2/bias"
      }
    }
  }
}
node {
  name: "dense_3/MatMul"
  op: "MatMul"
  input: "dense_2/BiasAdd"
  input: "dense_2/kernel/read"
  attr {
    key: "T"
    value {
      type: DT_INT32
    }
  }
  attr {
    key: "transpose_a"
    value {
      b: false
    }
  }
  attr {
    key: "transpose_b"
    value {
      b: false
    }
  }
}
node {
  name: "dense_3/BiasAdd"
  op: "BiasAdd"
  input: "dense_3/MatMul"
  input: "dense_2/bias/read"
  attr {
    key: "T"
    value {
      type: DT_INT32
    }
  }
  attr {
    key: "data_format"
    value {
      s: "NHWC"
    }
  }
}
node {
  name: "Const_4"
  op: "Const"
  attr {
    key: "dtype"
    value {
      type: DT_INT32
    }
  }
  attr {
    key: "value"
    value {
      tensor {
        dtype: DT_INT32
        tensor_shape {
          dim {
            size: 10
          }
          dim {
            size: 1
          }
        }
        int_val: 0
      }
    }
  }
}
node {
  name: "dense_3/kernel"
  op: "VariableV2"
  attr {
    key: "container"
    value {
      s: ""
    }
  }
  attr {
    key: "dtype"
    value {
      type: DT_INT32
    }
  }
  attr {
    key: "shape"
    value {
      shape {
        dim {
          size: 10
        }
        dim {
          size: 1
        }
      }
    }
  }
  attr {
    key: "shared_name"
    value {
      s: ""
    }
  }
}
node {
  name: "dense_3/kernel/Assign"
  op: "Assign"
  input: "dense_3/kernel"
  input: "Const_4"
  attr {
    key: "T"
    value {
      type: DT_INT32
    }
  }
  attr {
    key: "_class"
    value {
      list {
        s: "loc:@dense_3/kernel"
      }
    }
  }
  attr {
    key: "use_locking"
    value {
      b: true
    }
  }
  attr {
    key: "validate_shape"
    value {
      b: true
    }
  }
}
node {
  name: "dense_3/kernel/read"
  op: "Identity"
  input: "dense_3/kernel"
  attr {
    key: "T"
    value {
      type: DT_INT32
    }
  }
  attr {
    key: "_class"
    value {
      list {
        s: "loc:@dense_3/kernel"
      }
    }
  }
}
node {
  name: "dense_3/bias/Initializer/Const"
  op: "Const"
  attr {
    key: "_class"
    value {
      list {
        s: "loc:@dense_3/bias"
      }
    }
  }
  attr {
    key: "dtype"
    value {
      type: DT_INT32
    }
  }
  attr {
    key: "value"
    value {
      tensor {
        dtype: DT_INT32
        tensor_shape {
          dim {
            size: 1
          }
        }
        int_val: 0
      }
    }
  }
}
node {
  name: "dense_3/bias"
  op: "VariableV2"
  attr {
    key: "_class"
    value {
      list {
        s: "loc:@dense_3/bias"
      }
    }
  }
  attr {
    key: "container"
    value {
      s: ""
    }
  }
  attr {
    key: "dtype"
    value {
      type: DT_INT32
    }
  }
  attr {
    key: "shape"
    value {
      shape {
        dim {
          size: 1
        }
      }
    }
  }
  attr {
    key: "shared_name"
    value {
      s: ""
    }
  }
}
node {
  name: "dense_3/bias/Assign"
  op: "Assign"
  input: "dense_3/bias"
  input: "dense_3/bias/Initializer/Const"
  attr {
    key: "T"
    value {
      type: DT_INT32
    }
  }
  attr {
    key: "_class"
    value {
      list {
        s: "loc:@dense_3/bias"
      }
    }
  }
  attr {
    key: "use_locking"
    value {
      b: true
    }
  }
  attr {
    key: "validate_shape"
    value {
      b: true
    }
  }
}
node {
  name: "dense_3/bias/read"
  op: "Identity"
  input: "dense_3/bias"
  attr {
    key: "T"
    value {
      type: DT_INT32
    }
  }
  attr {
    key: "_class"
    value {
      list {
        s: "loc:@dense_3/bias"
      }
    }
  }
}
node {
  name: "dense_4/MatMul"
  op: "MatMul"
  input: "dense_3/BiasAdd"
  input: "dense_3/kernel/read"
  attr {
    key: "T"
    value {
      type: DT_INT32
    }
  }
  attr {
    key: "transpose_a"
    value {
      b: false
    }
  }
  attr {
    key: "transpose_b"
    value {
      b: false
    }
  }
}
node {
  name: "dense_4/BiasAdd"
  op: "BiasAdd"
  input: "dense_4/MatMul"
  input: "dense_3/bias/read"
  attr {
    key: "T"
    value {
      type: DT_INT32
    }
  }
  attr {
    key: "data_format"
    value {
      s: "NHWC"
    }
  }
}
node {
  name: "Const_5"
  op: "Const"
  attr {
    key: "dtype"
    value {
      type: DT_FLOAT
    }
  }
  attr {
    key: "value"
    value {
      tensor {
        dtype: DT_FLOAT
        tensor_shape {
          dim {
            size: 100
          }
          dim {
            size: 10
          }
        }
        tensor_content: "\000\000\000\000\000\000\200?\000\000\000@\000\000@@\000\000\200@\000\000\240@\000\000\300@\000\000\340@\000\000\000A\000\000\020A\000\000\000\000\000\000\200?\000\000\000@\000\000@@\000\000\200@\000\000\240@\000\000\300@\000\000\340@\000\000\000A\000\000\020A\000\000\000\000\000\000\200?\000\000\000@\000\000@@\000\000\200@\000\000\240@\000\000\300@\000\000\340@\000\000\000A\000\000\020A\000\000\000\000\000\000\200?\000\000\000@\000\000@@\000\000\200@\000\000\240@\000\000\300@\000\000\340@\000\000\000A\000\000\020A\000\000\000\000\000\000\200?\000\000\000@\000\000@@\000\000\200@\000\000\240@\000\000\300@\000\000\340@\000\000\000A\000\000\020A\000\000\000\000\000\000\200?\000\000\000@\000\000@@\000\000\200@\000\000\240@\000\000\300@\000\000\340@\000\000\000A\000\000\020A\000\000\000\000\000\000\200?\000\000\000@\000\000@@\000\000\200@\000\000\240@\000\000\300@\000\000\340@\000\000\000A\000\000\020A\000\000\000\000\000\000\200?\000\000\000@\000\000@@\000\000\200@\000\000\240@\000\000\300@\000\000\340@\000\000\000A\000\000\020A\000\000\000\000\000\000\200?\000\000\000@\000\000@@\000\000\200@\000\000\240@\000\000\300@\000\000\340@\000\000\000A\000\000\020A\000\000\000\000\000\000\200?\000\000\000@\000\000@@\000\000\200@\000\000\240@\000\000\300@\000\000\340@\000\000\000A\000\000\020A\000\000\000\000\000\000\200?\000\000\000@\000\000@@\000\000\200@\000\000\240@\000\000\300@\000\000\340@\000\000\000A\000\000\020A\000\000\000\000\000\000\200?\000\000\000@\000\000@@\000\000\200@\000\000\240@\000\000\300@\000\000\340@\000\000\000A\000\000\020A\000\000\000\000\000\000\200?\000\000\000@\000\000@@\000\000\200@\000\000\240@\000\000\300@\000\000\340@\000\000\000A\000\000\020A\000\000\000\000\000\000\200?\000\000\000@\000\000@@\000\000\200@\000\000\240@\000\000\300@\000\000\340@\000\000\000A\000\000\020A\000\000\000\000\000\000\200?\000\000\000@\000\000@@\000\000\200@\000\000\240@\000\000\300@\000\000\340@\000\000\000A\000\000\020A\000\000\000\000\000\000\200?\000\000\000@\000\000@@\000\000\200@\000\000\240@\000\000\300@\000\000\340@\000\000\000A\000\000\020A\000\000\000\000\000\000\200?\000\000\000@\000\000@@\000\000\200@\000\000\240@\000\000\300@\000\000\340@\000\000\000A\000\000\020A\000\000\000\000\000\000\200?\000\000\000@\000\000@@\000\000\200@\000\000\240@\000\000\300@\000\000\340@\000\000\000A\000\000\020A\000\000\000\000\000\000\200?\000\000\000@\000\000@@\000\000\200@\000\000\240@\000\000\300@\000\000\340@\000\000\000A\000\000\020A\000\000\000\000\000\000\200?\000\000\000@\000\000@@\000\000\200@\000\000\240@\000\000\300@\000\000\340@\000\000\000A\000\000\020A\000\000\000\000\000\000\200?\000\000\000@\000\000@@\000\000\200@\000\000\240@\000\000\300@\000\000\340@\000\000\000A\000\000\020A\000\000\000\000\000\000\200?\000\000\000@\000\000@@\000\000\200@\000\000\240@\000\000\300@\000\000\340@\000\000\000A\000\000\020A\000\000\000\000\000\000\200?\000\000\000@\000\000@@\000\000\200@\000\000\240@\000\000\300@\000\000\340@\000\000\000A\000\000\020A\000\000\000\000\000\000\200?\000\000\000@\000\000@@\000\000\200@\000\000\240@\000\000\300@\000\000\340@\000\000\000A\000\000\020A\000\000\000\000\000\000\200?\000\000\000@\000\000@@\000\000\200@\000\000\240@\000\000\300@\000\000\340@\000\000\000A\000\000\020A\000\000\000\000\000\000\200?\000\000\000@\000\000@@\000\000\200@\000\000\240@\000\000\300@\000\000\340@\000\000\000A\000\000\020A\000\000\000\000\000\000\200?\000\000\000@\000\000@@\000\000\200@\000\000\240@\000\000\300@\000\000\340@\000\000\000A\000\000\020A\000\000\000\000\000\000\200?\000\000\000@\000\000@@\000\000\200@\000\000\240@\000\000\300@\000\000\340@\000\000\000A\000\000\020A\000\000\000\000\000\000\200?\000\000\000@\000\000@@\000\000\200@\000\000\240@\000\000\300@\000\000\340@\000\000\000A\000\000\020A\000\000\000\000\000\000\200?\000\000\000@\000\000@@\000\000\200@\000\000\240@\000\000\300@\000\000\340@\000\000\000A\000\000\020A\000\000\000\000\000\000\200?\000\000\000@\000\000@@\000\000\200@\000\000\240@\000\000\300@\000\000\340@\000\000\000A\000\000\020A\000\000\000\000\000\000\200?\000\000\000@\000\000@@\000\000\200@\000\000\240@\000\000\300@\000\000\340@\000\000\000A\000\000\020A\000\000\000\000\000\000\200?\000\000\000@\000\000@@\000\000\200@\000\000\240@\000\000\300@\000\000\340@\000\000\000A\000\000\020A\000\000\000\000\000\000\200?\000\000\000@\000\000@@\000\000\200@\000\000\240@\000\000\300@\000\000\340@\000\000\000A\000\000\020A\000\000\000\000\000\000\200?\000\000\000@\000\000@@\000\000\200@\000\000\240@\000\000\300@\000\000\340@\000\000\000A\000\000\020A\000\000\000\000\000\000\200?\000\000\000@\000\000@@\000\000\200@\000\000\240@\000\000\300@\000\000\340@\000\000\000A\000\000\020A\000\000\000\000\000\000\200?\000\000\000@\000\000@@\000\000\200@\000\000\240@\000\000\300@\000\000\340@\000\000\000A\000\000\020A\000\000\000\000\000\000\200?\000\000\000@\000\000@@\000\000\200@\000\000\240@\000\000\300@\000\000\340@\000\000\000A\000\000\020A\000\000\000\000\000\000\200?\000\000\000@\000\000@@\000\000\200@\000\000\240@\000\000\300@\000\000\340@\000\000\000A\000\000\020A\000\000\000\000\000\000\200?\000\000\000@\000\000@@\000\000\200@\000\000\240@\000\000\300@\000\000\340@\000\000\000A\000\000\020A\000\000\000\000\000\000\200?\000\000\000@\000\000@@\000\000\200@\000\000\240@\000\000\300@\000\000\340@\000\000\000A\000\000\020A\000\000\000\000\000\000\200?\000\000\000@\000\000@@\000\000\200@\000\000\240@\000\000\300@\000\000\340@\000\000\000A\000\000\020A\000\000\000\000\000\000\200?\000\000\000@\000\000@@\000\000\200@\000\000\240@\000\000\300@\000\000\340@\000\000\000A\000\000\020A\000\000\000\000\000\000\200?\000\000\000@\000\000@@\000\000\200@\000\000\240@\000\000\300@\000\000\340@\000\000\000A\000\000\020A\000\000\000\000\000\000\200?\000\000\000@\000\000@@\000\000\200@\000\000\240@\000\000\300@\000\000\340@\000\000\000A\000\000\020A\000\000\000\000\000\000\200?\000\000\000@\000\000@@\000\000\200@\000\000\240@\000\000\300@\000\000\340@\000\000\000A\000\000\020A\000\000\000\000\000\000\200?\000\000\000@\000\000@@\000\000\200@\000\000\240@\000\000\300@\000\000\340@\000\000\000A\000\000\020A\000\000\000\000\000\000\200?\000\000\000@\000\000@@\000\000\200@\000\000\240@\000\000\300@\000\000\340@\000\000\000A\000\000\020A\000\000\000\000\000\000\200?\000\000\000@\000\000@@\000\000\200@\000\000\240@\000\000\300@\000\000\340@\000\000\000A\000\000\020A\000\000\000\000\000\000\200?\000\000\000@\000\000@@\000\000\200@\000\000\240@\000\000\300@\000\000\340@\000\000\000A\000\000\020A\000\000\000\000\000\000\200?\000\000\000@\000\000@@\000\000\200@\000\000\240@\000\000\300@\000\000\340@\000\000\000A\000\000\020A\000\000\000\000\000\000\200?\000\000\000@\000\000@@\000\000\200@\000\000\240@\000\000\300@\000\000\340@\000\000\000A\000\000\020A\000\000\000\000\000\000\200?\000\000\000@\000\000@@\000\000\200@\000\000\240@\000\000\300@\000\000\340@\000\000\000A\000\000\020A\000\000\000\000\000\000\200?\000\000\000@\000\000@@\000\000\200@\000\000\240@\000\000\300@\000\000\340@\000\000\000A\000\000\020A\000\000\000\000\000\000\200?\000\000\000@\000\000@@\000\000\200@\000\000\240@\000\000\300@\000\000\340@\000\000\000A\000\000\020A\000\000\000\000\000\000\200?\000\000\000@\000\000@@\000\000\200@\000\000\240@\000\000\300@\000\000\340@\000\000\000A\000\000\020A\000\000\000\000\000\000\200?\000\000\000@\000\000@@\000\000\200@\000\000\240@\000\000\300@\000\000\340@\000\000\000A\000\000\020A\000\000\000\000\000\000\200?\000\000\000@\000\000@@\000\000\200@\000\000\240@\000\000\300@\000\000\340@\000\000\000A\000\000\020A\000\000\000\000\000\000\200?\000\000\000@\000\000@@\000\000\200@\000\000\240@\000\000\300@\000\000\340@\000\000\000A\000\000\020A\000\000\000\000\000\000\200?\000\000\000@\000\000@@\000\000\200@\000\000\240@\000\000\300@\000\000\340@\000\000\000A\000\000\020A\000\000\000\000\000\000\200?\000\000\000@\000\000@@\000\000\200@\000\000\240@\000\000\300@\000\000\340@\000\000\000A\000\000\020A\000\000\000\000\000\000\200?\000\000\000@\000\000@@\000\000\200@\000\000\240@\000\000\300@\000\000\340@\000\000\000A\000\000\020A\000\000\000\000\000\000\200?\000\000\000@\000\000@@\000\000\200@\000\000\240@\000\000\300@\000\000\340@\000\000\000A\000\000\020A\000\000\000\000\000\000\200?\000\000\000@\000\000@@\000\000\200@\000\000\240@\000\000\300@\000\000\340@\000\000\000A\000\000\020A\000\000\000\000\000\000\200?\000\000\000@\000\000@@\000\000\200@\000\000\240@\000\000\300@\000\000\340@\000\000\000A\000\000\020A\000\000\000\000\000\000\200?\000\000\000@\000\000@@\000\000\200@\000\000\240@\000\000\300@\000\000\340@\000\000\000A\000\000\020A\000\000\000\000\000\000\200?\000\000\000@\000\000@@\000\000\200@\000\000\240@\000\000\300@\000\000\340@\000\000\000A\000\000\020A\000\000\000\000\000\000\200?\000\000\000@\000\000@@\000\000\200@\000\000\240@\000\000\300@\000\000\340@\000\000\000A\000\000\020A\000\000\000\000\000\000\200?\000\000\000@\000\000@@\000\000\200@\000\000\240@\000\000\300@\000\000\340@\000\000\000A\000\000\020A\000\000\000\000\000\000\200?\000\000\000@\000\000@@\000\000\200@\000\000\240@\000\000\300@\000\000\340@\000\000\000A\000\000\020A\000\000\000\000\000\000\200?\000\000\000@\000\000@@\000\000\200@\000\000\240@\000\000\300@\000\000\340@\000\000\000A\000\000\020A\000\000\000\000\000\000\200?\000\000\000@\000\000@@\000\000\200@\000\000\240@\000\000\300@\000\000\340@\000\000\000A\000\000\020A\000\000\000\000\000\000\200?\000\000\000@\000\000@@\000\000\200@\000\000\240@\000\000\300@\000\000\340@\000\000\000A\000\000\020A\000\000\000\000\000\000\200?\000\000\000@\000\000@@\000\000\200@\000\000\240@\000\000\300@\000\000\340@\000\000\000A\000\000\020A\000\000\000\000\000\000\200?\000\000\000@\000\000@@\000\000\200@\000\000\240@\000\000\300@\000\000\340@\000\000\000A\000\000\020A\000\000\000\000\000\000\200?\000\000\000@\000\000@@\000\000\200@\000\000\240@\000\000\300@\000\000\340@\000\000\000A\000\000\020A\000\000\000\000\000\000\200?\000\000\000@\000\000@@\000\000\200@\000\000\240@\000\000\300@\000\000\340@\000\000\000A\000\000\020A\000\000\000\000\000\000\200?\000\000\000@\000\000@@\000\000\200@\000\000\240@\000\000\300@\000\000\340@\000\000\000A\000\000\020A\000\000\000\000\000\000\200?\000\000\000@\000\000@@\000\000\200@\000\000\240@\000\000\300@\000\000\340@\000\000\000A\000\000\020A\000\000\000\000\000\000\200?\000\000\000@\000\000@@\000\000\200@\000\000\240@\000\000\300@\000\000\340@\000\000\000A\000\000\020A\000\000\000\000\000\000\200?\000\000\000@\000\000@@\000\000\200@\000\000\240@\000\000\300@\000\000\340@\000\000\000A\000\000\020A\000\000\000\000\000\000\200?\000\000\000@\000\000@@\000\000\200@\000\000\240@\000\000\300@\000\000\340@\000\000\000A\000\000\020A\000\000\000\000\000\000\200?\000\000\000@\000\000@@\000\000\200@\000\000\240@\000\000\300@\000\000\340@\000\000\000A\000\000\020A\000\000\000\000\000\000\200?\000\000\000@\000\000@@\000\000\200@\000\000\240@\000\000\300@\000\000\340@\000\000\000A\000\000\020A\000\000\000\000\000\000\200?\000\000\000@\000\000@@\000\000\200@\000\000\240@\000\000\300@\000\000\340@\000\000\000A\000\000\020A\000\000\000\000\000\000\200?\000\000\000@\000\000@@\000\000\200@\000\000\240@\000\000\300@\000\000\340@\000\000\000A\000\000\020A\000\000\000\000\000\000\200?\000\000\000@\000\000@@\000\000\200@\000\000\240@\000\000\300@\000\000\340@\000\000\000A\000\000\020A\000\000\000\000\000\000\200?\000\000\000@\000\000@@\000\000\200@\000\000\240@\000\000\300@\000\000\340@\000\000\000A\000\000\020A\000\000\000\000\000\000\200?\000\000\000@\000\000@@\000\000\200@\000\000\240@\000\000\300@\000\000\340@\000\000\000A\000\000\020A\000\000\000\000\000\000\200?\000\000\000@\000\000@@\000\000\200@\000\000\240@\000\000\300@\000\000\340@\000\000\000A\000\000\020A\000\000\000\000\000\000\200?\000\000\000@\000\000@@\000\000\200@\000\000\240@\000\000\300@\000\000\340@\000\000\000A\000\000\020A\000\000\000\000\000\000\200?\000\000\000@\000\000@@\000\000\200@\000\000\240@\000\000\300@\000\000\340@\000\000\000A\000\000\020A\000\000\000\000\000\000\200?\000\000\000@\000\000@@\000\000\200@\000\000\240@\000\000\300@\000\000\340@\000\000\000A\000\000\020A\000\000\000\000\000\000\200?\000\000\000@\000\000@@\000\000\200@\000\000\240@\000\000\300@\000\000\340@\000\000\000A\000\000\020A\000\000\000\000\000\000\200?\000\000\000@\000\000@@\000\000\200@\000\000\240@\000\000\300@\000\000\340@\000\000\000A\000\000\020A\000\000\000\000\000\000\200?\000\000\000@\000\000@@\000\000\200@\000\000\240@\000\000\300@\000\000\340@\000\000\000A\000\000\020A\000\000\000\000\000\000\200?\000\000\000@\000\000@@\000\000\200@\000\000\240@\000\000\300@\000\000\340@\000\000\000A\000\000\020A\000\000\000\000\000\000\200?\000\000\000@\000\000@@\000\000\200@\000\000\240@\000\000\300@\000\000\340@\000\000\000A\000\000\020A\000\000\000\000\000\000\200?\000\000\000@\000\000@@\000\000\200@\000\000\240@\000\000\300@\000\000\340@\000\000\000A\000\000\020A\000\000\000\000\000\000\200?\000\000\000@\000\000@@\000\000\200@\000\000\240@\000\000\300@\000\000\340@\000\000\000A\000\000\020A"
      }
    }
  }
}
node {
  name: "dense_4/kernel/Initializer/random_uniform/shape"
  op: "Const"
  attr {
    key: "_class"
    value {
      list {
        s: "loc:@dense_4/kernel"
      }
    }
  }
  attr {
    key: "dtype"
    value {
      type: DT_INT32
    }
  }
  attr {
    key: "value"
    value {
      tensor {
        dtype: DT_INT32
        tensor_shape {
          dim {
            size: 2
          }
        }
        tensor_content: "\n\000\000\000\n\000\000\000"
      }
    }
  }
}
node {
  name: "dense_4/kernel/Initializer/random_uniform/min"
  op: "Const"
  attr {
    key: "_class"
    value {
      list {
        s: "loc:@dense_4/kernel"
      }
    }
  }
  attr {
    key: "dtype"
    value {
      type: DT_FLOAT
    }
  }
  attr {
    key: "value"
    value {
      tensor {
        dtype: DT_FLOAT
        tensor_shape {
        }
        float_val: -0.547722578049
      }
    }
  }
}
node {
  name: "dense_4/kernel/Initializer/random_uniform/max"
  op: "Const"
  attr {
    key: "_class"
    value {
      list {
        s: "loc:@dense_4/kernel"
      }
    }
  }
  attr {
    key: "dtype"
    value {
      type: DT_FLOAT
    }
  }
  attr {
    key: "value"
    value {
      tensor {
        dtype: DT_FLOAT
        tensor_shape {
        }
        float_val: 0.547722578049
      }
    }
  }
}
node {
  name: "dense_4/kernel/Initializer/random_uniform/RandomUniform"
  op: "RandomUniform"
  input: "dense_4/kernel/Initializer/random_uniform/shape"
  attr {
    key: "T"
    value {
      type: DT_INT32
    }
  }
  attr {
    key: "_class"
    value {
      list {
        s: "loc:@dense_4/kernel"
      }
    }
  }
  attr {
    key: "dtype"
    value {
      type: DT_FLOAT
    }
  }
  attr {
    key: "seed"
    value {
      i: 0
    }
  }
  attr {
    key: "seed2"
    value {
      i: 0
    }
  }
}
node {
  name: "dense_4/kernel/Initializer/random_uniform/sub"
  op: "Sub"
  input: "dense_4/kernel/Initializer/random_uniform/max"
  input: "dense_4/kernel/Initializer/random_uniform/min"
  attr {
    key: "T"
    value {
      type: DT_FLOAT
    }
  }
  attr {
    key: "_class"
    value {
      list {
        s: "loc:@dense_4/kernel"
      }
    }
  }
}
node {
  name: "dense_4/kernel/Initializer/random_uniform/mul"
  op: "Mul"
  input: "dense_4/kernel/Initializer/random_uniform/RandomUniform"
  input: "dense_4/kernel/Initializer/random_uniform/sub"
  attr {
    key: "T"
    value {
      type: DT_FLOAT
    }
  }
  attr {
    key: "_class"
    value {
      list {
        s: "loc:@dense_4/kernel"
      }
    }
  }
}
node {
  name: "dense_4/kernel/Initializer/random_uniform"
  op: "Add"
  input: "dense_4/kernel/Initializer/random_uniform/mul"
  input: "dense_4/kernel/Initializer/random_uniform/min"
  attr {
    key: "T"
    value {
      type: DT_FLOAT
    }
  }
  attr {
    key: "_class"
    value {
      list {
        s: "loc:@dense_4/kernel"
      }
    }
  }
}
node {
  name: "dense_4/kernel"
  op: "VariableV2"
  attr {
    key: "_class"
    value {
      list {
        s: "loc:@dense_4/kernel"
      }
    }
  }
  attr {
    key: "container"
    value {
      s: ""
    }
  }
  attr {
    key: "dtype"
    value {
      type: DT_FLOAT
    }
  }
  attr {
    key: "shape"
    value {
      shape {
        dim {
          size: 10
        }
        dim {
          size: 10
        }
      }
    }
  }
  attr {
    key: "shared_name"
    value {
      s: ""
    }
  }
}
node {
  name: "dense_4/kernel/Assign"
  op: "Assign"
  input: "dense_4/kernel"
  input: "dense_4/kernel/Initializer/random_uniform"
  attr {
    key: "T"
    value {
      type: DT_FLOAT
    }
  }
  attr {
    key: "_class"
    value {
      list {
        s: "loc:@dense_4/kernel"
      }
    }
  }
  attr {
    key: "use_locking"
    value {
      b: true
    }
  }
  attr {
    key: "validate_shape"
    value {
      b: true
    }
  }
}
node {
  name: "dense_4/kernel/read"
  op: "Identity"
  input: "dense_4/kernel"
  attr {
    key: "T"
    value {
      type: DT_FLOAT
    }
  }
  attr {
    key: "_class"
    value {
      list {
        s: "loc:@dense_4/kernel"
      }
    }
  }
}
node {
  name: "dense_4/bias/Initializer/Const"
  op: "Const"
  attr {
    key: "_class"
    value {
      list {
        s: "loc:@dense_4/bias"
      }
    }
  }
  attr {
    key: "dtype"
    value {
      type: DT_FLOAT
    }
  }
  attr {
    key: "value"
    value {
      tensor {
        dtype: DT_FLOAT
        tensor_shape {
          dim {
            size: 10
          }
        }
        float_val: 0.0
      }
    }
  }
}
node {
  name: "dense_4/bias"
  op: "VariableV2"
  attr {
    key: "_class"
    value {
      list {
        s: "loc:@dense_4/bias"
      }
    }
  }
  attr {
    key: "container"
    value {
      s: ""
    }
  }
  attr {
    key: "dtype"
    value {
      type: DT_FLOAT
    }
  }
  attr {
    key: "shape"
    value {
      shape {
        dim {
          size: 10
        }
      }
    }
  }
  attr {
    key: "shared_name"
    value {
      s: ""
    }
  }
}
node {
  name: "dense_4/bias/Assign"
  op: "Assign"
  input: "dense_4/bias"
  input: "dense_4/bias/Initializer/Const"
  attr {
    key: "T"
    value {
      type: DT_FLOAT
    }
  }
  attr {
    key: "_class"
    value {
      list {
        s: "loc:@dense_4/bias"
      }
    }
  }
  attr {
    key: "use_locking"
    value {
      b: true
    }
  }
  attr {
    key: "validate_shape"
    value {
      b: true
    }
  }
}
node {
  name: "dense_4/bias/read"
  op: "Identity"
  input: "dense_4/bias"
  attr {
    key: "T"
    value {
      type: DT_FLOAT
    }
  }
  attr {
    key: "_class"
    value {
      list {
        s: "loc:@dense_4/bias"
      }
    }
  }
}
node {
  name: "dense_5/MatMul"
  op: "MatMul"
  input: "Const_5"
  input: "dense_4/kernel/read"
  attr {
    key: "T"
    value {
      type: DT_FLOAT
    }
  }
  attr {
    key: "transpose_a"
    value {
      b: false
    }
  }
  attr {
    key: "transpose_b"
    value {
      b: false
    }
  }
}
node {
  name: "dense_5/BiasAdd"
  op: "BiasAdd"
  input: "dense_5/MatMul"
  input: "dense_4/bias/read"
  attr {
    key: "T"
    value {
      type: DT_FLOAT
    }
  }
  attr {
    key: "data_format"
    value {
      s: "NHWC"
    }
  }
}
node {
  name: "dense_5/kernel/Initializer/random_uniform/shape"
  op: "Const"
  attr {
    key: "_class"
    value {
      list {
        s: "loc:@dense_5/kernel"
      }
    }
  }
  attr {
    key: "dtype"
    value {
      type: DT_INT32
    }
  }
  attr {
    key: "value"
    value {
      tensor {
        dtype: DT_INT32
        tensor_shape {
          dim {
            size: 2
          }
        }
        tensor_content: "\n\000\000\000\n\000\000\000"
      }
    }
  }
}
node {
  name: "dense_5/kernel/Initializer/random_uniform/min"
  op: "Const"
  attr {
    key: "_class"
    value {
      list {
        s: "loc:@dense_5/kernel"
      }
    }
  }
  attr {
    key: "dtype"
    value {
      type: DT_FLOAT
    }
  }
  attr {
    key: "value"
    value {
      tensor {
        dtype: DT_FLOAT
        tensor_shape {
        }
        float_val: -0.547722578049
      }
    }
  }
}
node {
  name: "dense_5/kernel/Initializer/random_uniform/max"
  op: "Const"
  attr {
    key: "_class"
    value {
      list {
        s: "loc:@dense_5/kernel"
      }
    }
  }
  attr {
    key: "dtype"
    value {
      type: DT_FLOAT
    }
  }
  attr {
    key: "value"
    value {
      tensor {
        dtype: DT_FLOAT
        tensor_shape {
        }
        float_val: 0.547722578049
      }
    }
  }
}
node {
  name: "dense_5/kernel/Initializer/random_uniform/RandomUniform"
  op: "RandomUniform"
  input: "dense_5/kernel/Initializer/random_uniform/shape"
  attr {
    key: "T"
    value {
      type: DT_INT32
    }
  }
  attr {
    key: "_class"
    value {
      list {
        s: "loc:@dense_5/kernel"
      }
    }
  }
  attr {
    key: "dtype"
    value {
      type: DT_FLOAT
    }
  }
  attr {
    key: "seed"
    value {
      i: 0
    }
  }
  attr {
    key: "seed2"
    value {
      i: 0
    }
  }
}
node {
  name: "dense_5/kernel/Initializer/random_uniform/sub"
  op: "Sub"
  input: "dense_5/kernel/Initializer/random_uniform/max"
  input: "dense_5/kernel/Initializer/random_uniform/min"
  attr {
    key: "T"
    value {
      type: DT_FLOAT
    }
  }
  attr {
    key: "_class"
    value {
      list {
        s: "loc:@dense_5/kernel"
      }
    }
  }
}
node {
  name: "dense_5/kernel/Initializer/random_uniform/mul"
  op: "Mul"
  input: "dense_5/kernel/Initializer/random_uniform/RandomUniform"
  input: "dense_5/kernel/Initializer/random_uniform/sub"
  attr {
    key: "T"
    value {
      type: DT_FLOAT
    }
  }
  attr {
    key: "_class"
    value {
      list {
        s: "loc:@dense_5/kernel"
      }
    }
  }
}
node {
  name: "dense_5/kernel/Initializer/random_uniform"
  op: "Add"
  input: "dense_5/kernel/Initializer/random_uniform/mul"
  input: "dense_5/kernel/Initializer/random_uniform/min"
  attr {
    key: "T"
    value {
      type: DT_FLOAT
    }
  }
  attr {
    key: "_class"
    value {
      list {
        s: "loc:@dense_5/kernel"
      }
    }
  }
}
node {
  name: "dense_5/kernel"
  op: "VariableV2"
  attr {
    key: "_class"
    value {
      list {
        s: "loc:@dense_5/kernel"
      }
    }
  }
  attr {
    key: "container"
    value {
      s: ""
    }
  }
  attr {
    key: "dtype"
    value {
      type: DT_FLOAT
    }
  }
  attr {
    key: "shape"
    value {
      shape {
        dim {
          size: 10
        }
        dim {
          size: 10
        }
      }
    }
  }
  attr {
    key: "shared_name"
    value {
      s: ""
    }
  }
}
node {
  name: "dense_5/kernel/Assign"
  op: "Assign"
  input: "dense_5/kernel"
  input: "dense_5/kernel/Initializer/random_uniform"
  attr {
    key: "T"
    value {
      type: DT_FLOAT
    }
  }
  attr {
    key: "_class"
    value {
      list {
        s: "loc:@dense_5/kernel"
      }
    }
  }
  attr {
    key: "use_locking"
    value {
      b: true
    }
  }
  attr {
    key: "validate_shape"
    value {
      b: true
    }
  }
}
node {
  name: "dense_5/kernel/read"
  op: "Identity"
  input: "dense_5/kernel"
  attr {
    key: "T"
    value {
      type: DT_FLOAT
    }
  }
  attr {
    key: "_class"
    value {
      list {
        s: "loc:@dense_5/kernel"
      }
    }
  }
}
node {
  name: "dense_5/bias/Initializer/Const"
  op: "Const"
  attr {
    key: "_class"
    value {
      list {
        s: "loc:@dense_5/bias"
      }
    }
  }
  attr {
    key: "dtype"
    value {
      type: DT_FLOAT
    }
  }
  attr {
    key: "value"
    value {
      tensor {
        dtype: DT_FLOAT
        tensor_shape {
          dim {
            size: 10
          }
        }
        float_val: 0.0
      }
    }
  }
}
node {
  name: "dense_5/bias"
  op: "VariableV2"
  attr {
    key: "_class"
    value {
      list {
        s: "loc:@dense_5/bias"
      }
    }
  }
  attr {
    key: "container"
    value {
      s: ""
    }
  }
  attr {
    key: "dtype"
    value {
      type: DT_FLOAT
    }
  }
  attr {
    key: "shape"
    value {
      shape {
        dim {
          size: 10
        }
      }
    }
  }
  attr {
    key: "shared_name"
    value {
      s: ""
    }
  }
}
node {
  name: "dense_5/bias/Assign"
  op: "Assign"
  input: "dense_5/bias"
  input: "dense_5/bias/Initializer/Const"
  attr {
    key: "T"
    value {
      type: DT_FLOAT
    }
  }
  attr {
    key: "_class"
    value {
      list {
        s: "loc:@dense_5/bias"
      }
    }
  }
  attr {
    key: "use_locking"
    value {
      b: true
    }
  }
  attr {
    key: "validate_shape"
    value {
      b: true
    }
  }
}
node {
  name: "dense_5/bias/read"
  op: "Identity"
  input: "dense_5/bias"
  attr {
    key: "T"
    value {
      type: DT_FLOAT
    }
  }
  attr {
    key: "_class"
    value {
      list {
        s: "loc:@dense_5/bias"
      }
    }
  }
}
node {
  name: "dense_6/MatMul"
  op: "MatMul"
  input: "dense_5/BiasAdd"
  input: "dense_5/kernel/read"
  attr {
    key: "T"
    value {
      type: DT_FLOAT
    }
  }
  attr {
    key: "transpose_a"
    value {
      b: false
    }
  }
  attr {
    key: "transpose_b"
    value {
      b: false
    }
  }
}
node {
  name: "dense_6/BiasAdd"
  op: "BiasAdd"
  input: "dense_6/MatMul"
  input: "dense_5/bias/read"
  attr {
    key: "T"
    value {
      type: DT_FLOAT
    }
  }
  attr {
    key: "data_format"
    value {
      s: "NHWC"
    }
  }
}
node {
  name: "dense_6/kernel/Initializer/random_uniform/shape"
  op: "Const"
  attr {
    key: "_class"
    value {
      list {
        s: "loc:@dense_6/kernel"
      }
    }
  }
  attr {
    key: "dtype"
    value {
      type: DT_INT32
    }
  }
  attr {
    key: "value"
    value {
      tensor {
        dtype: DT_INT32
        tensor_shape {
          dim {
            size: 2
          }
        }
        tensor_content: "\n\000\000\000\n\000\000\000"
      }
    }
  }
}
node {
  name: "dense_6/kernel/Initializer/random_uniform/min"
  op: "Const"
  attr {
    key: "_class"
    value {
      list {
        s: "loc:@dense_6/kernel"
      }
    }
  }
  attr {
    key: "dtype"
    value {
      type: DT_FLOAT
    }
  }
  attr {
    key: "value"
    value {
      tensor {
        dtype: DT_FLOAT
        tensor_shape {
        }
        float_val: -0.547722578049
      }
    }
  }
}
node {
  name: "dense_6/kernel/Initializer/random_uniform/max"
  op: "Const"
  attr {
    key: "_class"
    value {
      list {
        s: "loc:@dense_6/kernel"
      }
    }
  }
  attr {
    key: "dtype"
    value {
      type: DT_FLOAT
    }
  }
  attr {
    key: "value"
    value {
      tensor {
        dtype: DT_FLOAT
        tensor_shape {
        }
        float_val: 0.547722578049
      }
    }
  }
}
node {
  name: "dense_6/kernel/Initializer/random_uniform/RandomUniform"
  op: "RandomUniform"
  input: "dense_6/kernel/Initializer/random_uniform/shape"
  attr {
    key: "T"
    value {
      type: DT_INT32
    }
  }
  attr {
    key: "_class"
    value {
      list {
        s: "loc:@dense_6/kernel"
      }
    }
  }
  attr {
    key: "dtype"
    value {
      type: DT_FLOAT
    }
  }
  attr {
    key: "seed"
    value {
      i: 0
    }
  }
  attr {
    key: "seed2"
    value {
      i: 0
    }
  }
}
node {
  name: "dense_6/kernel/Initializer/random_uniform/sub"
  op: "Sub"
  input: "dense_6/kernel/Initializer/random_uniform/max"
  input: "dense_6/kernel/Initializer/random_uniform/min"
  attr {
    key: "T"
    value {
      type: DT_FLOAT
    }
  }
  attr {
    key: "_class"
    value {
      list {
        s: "loc:@dense_6/kernel"
      }
    }
  }
}
node {
  name: "dense_6/kernel/Initializer/random_uniform/mul"
  op: "Mul"
  input: "dense_6/kernel/Initializer/random_uniform/RandomUniform"
  input: "dense_6/kernel/Initializer/random_uniform/sub"
  attr {
    key: "T"
    value {
      type: DT_FLOAT
    }
  }
  attr {
    key: "_class"
    value {
      list {
        s: "loc:@dense_6/kernel"
      }
    }
  }
}
node {
  name: "dense_6/kernel/Initializer/random_uniform"
  op: "Add"
  input: "dense_6/kernel/Initializer/random_uniform/mul"
  input: "dense_6/kernel/Initializer/random_uniform/min"
  attr {
    key: "T"
    value {
      type: DT_FLOAT
    }
  }
  attr {
    key: "_class"
    value {
      list {
        s: "loc:@dense_6/kernel"
      }
    }
  }
}
node {
  name: "dense_6/kernel"
  op: "VariableV2"
  attr {
    key: "_class"
    value {
      list {
        s: "loc:@dense_6/kernel"
      }
    }
  }
  attr {
    key: "container"
    value {
      s: ""
    }
  }
  attr {
    key: "dtype"
    value {
      type: DT_FLOAT
    }
  }
  attr {
    key: "shape"
    value {
      shape {
        dim {
          size: 10
        }
        dim {
          size: 10
        }
      }
    }
  }
  attr {
    key: "shared_name"
    value {
      s: ""
    }
  }
}
node {
  name: "dense_6/kernel/Assign"
  op: "Assign"
  input: "dense_6/kernel"
  input: "dense_6/kernel/Initializer/random_uniform"
  attr {
    key: "T"
    value {
      type: DT_FLOAT
    }
  }
  attr {
    key: "_class"
    value {
      list {
        s: "loc:@dense_6/kernel"
      }
    }
  }
  attr {
    key: "use_locking"
    value {
      b: true
    }
  }
  attr {
    key: "validate_shape"
    value {
      b: true
    }
  }
}
node {
  name: "dense_6/kernel/read"
  op: "Identity"
  input: "dense_6/kernel"
  attr {
    key: "T"
    value {
      type: DT_FLOAT
    }
  }
  attr {
    key: "_class"
    value {
      list {
        s: "loc:@dense_6/kernel"
      }
    }
  }
}
node {
  name: "dense_6/bias/Initializer/Const"
  op: "Const"
  attr {
    key: "_class"
    value {
      list {
        s: "loc:@dense_6/bias"
      }
    }
  }
  attr {
    key: "dtype"
    value {
      type: DT_FLOAT
    }
  }
  attr {
    key: "value"
    value {
      tensor {
        dtype: DT_FLOAT
        tensor_shape {
          dim {
            size: 10
          }
        }
        float_val: 0.0
      }
    }
  }
}
node {
  name: "dense_6/bias"
  op: "VariableV2"
  attr {
    key: "_class"
    value {
      list {
        s: "loc:@dense_6/bias"
      }
    }
  }
  attr {
    key: "container"
    value {
      s: ""
    }
  }
  attr {
    key: "dtype"
    value {
      type: DT_FLOAT
    }
  }
  attr {
    key: "shape"
    value {
      shape {
        dim {
          size: 10
        }
      }
    }
  }
  attr {
    key: "shared_name"
    value {
      s: ""
    }
  }
}
node {
  name: "dense_6/bias/Assign"
  op: "Assign"
  input: "dense_6/bias"
  input: "dense_6/bias/Initializer/Const"
  attr {
    key: "T"
    value {
      type: DT_FLOAT
    }
  }
  attr {
    key: "_class"
    value {
      list {
        s: "loc:@dense_6/bias"
      }
    }
  }
  attr {
    key: "use_locking"
    value {
      b: true
    }
  }
  attr {
    key: "validate_shape"
    value {
      b: true
    }
  }
}
node {
  name: "dense_6/bias/read"
  op: "Identity"
  input: "dense_6/bias"
  attr {
    key: "T"
    value {
      type: DT_FLOAT
    }
  }
  attr {
    key: "_class"
    value {
      list {
        s: "loc:@dense_6/bias"
      }
    }
  }
}
node {
  name: "dense_7/MatMul"
  op: "MatMul"
  input: "dense_6/BiasAdd"
  input: "dense_6/kernel/read"
  attr {
    key: "T"
    value {
      type: DT_FLOAT
    }
  }
  attr {
    key: "transpose_a"
    value {
      b: false
    }
  }
  attr {
    key: "transpose_b"
    value {
      b: false
    }
  }
}
node {
  name: "dense_7/BiasAdd"
  op: "BiasAdd"
  input: "dense_7/MatMul"
  input: "dense_6/bias/read"
  attr {
    key: "T"
    value {
      type: DT_FLOAT
    }
  }
  attr {
    key: "data_format"
    value {
      s: "NHWC"
    }
  }
}
node {
  name: "dense_7/kernel/Initializer/random_uniform/shape"
  op: "Const"
  attr {
    key: "_class"
    value {
      list {
        s: "loc:@dense_7/kernel"
      }
    }
  }
  attr {
    key: "dtype"
    value {
      type: DT_INT32
    }
  }
  attr {
    key: "value"
    value {
      tensor {
        dtype: DT_INT32
        tensor_shape {
          dim {
            size: 2
          }
        }
        tensor_content: "\n\000\000\000\001\000\000\000"
      }
    }
  }
}
node {
  name: "dense_7/kernel/Initializer/random_uniform/min"
  op: "Const"
  attr {
    key: "_class"
    value {
      list {
        s: "loc:@dense_7/kernel"
      }
    }
  }
  attr {
    key: "dtype"
    value {
      type: DT_FLOAT
    }
  }
  attr {
    key: "value"
    value {
      tensor {
        dtype: DT_FLOAT
        tensor_shape {
        }
        float_val: -0.73854893446
      }
    }
  }
}
node {
  name: "dense_7/kernel/Initializer/random_uniform/max"
  op: "Const"
  attr {
    key: "_class"
    value {
      list {
        s: "loc:@dense_7/kernel"
      }
    }
  }
  attr {
    key: "dtype"
    value {
      type: DT_FLOAT
    }
  }
  attr {
    key: "value"
    value {
      tensor {
        dtype: DT_FLOAT
        tensor_shape {
        }
        float_val: 0.73854893446
      }
    }
  }
}
node {
  name: "dense_7/kernel/Initializer/random_uniform/RandomUniform"
  op: "RandomUniform"
  input: "dense_7/kernel/Initializer/random_uniform/shape"
  attr {
    key: "T"
    value {
      type: DT_INT32
    }
  }
  attr {
    key: "_class"
    value {
      list {
        s: "loc:@dense_7/kernel"
      }
    }
  }
  attr {
    key: "dtype"
    value {
      type: DT_FLOAT
    }
  }
  attr {
    key: "seed"
    value {
      i: 0
    }
  }
  attr {
    key: "seed2"
    value {
      i: 0
    }
  }
}
node {
  name: "dense_7/kernel/Initializer/random_uniform/sub"
  op: "Sub"
  input: "dense_7/kernel/Initializer/random_uniform/max"
  input: "dense_7/kernel/Initializer/random_uniform/min"
  attr {
    key: "T"
    value {
      type: DT_FLOAT
    }
  }
  attr {
    key: "_class"
    value {
      list {
        s: "loc:@dense_7/kernel"
      }
    }
  }
}
node {
  name: "dense_7/kernel/Initializer/random_uniform/mul"
  op: "Mul"
  input: "dense_7/kernel/Initializer/random_uniform/RandomUniform"
  input: "dense_7/kernel/Initializer/random_uniform/sub"
  attr {
    key: "T"
    value {
      type: DT_FLOAT
    }
  }
  attr {
    key: "_class"
    value {
      list {
        s: "loc:@dense_7/kernel"
      }
    }
  }
}
node {
  name: "dense_7/kernel/Initializer/random_uniform"
  op: "Add"
  input: "dense_7/kernel/Initializer/random_uniform/mul"
  input: "dense_7/kernel/Initializer/random_uniform/min"
  attr {
    key: "T"
    value {
      type: DT_FLOAT
    }
  }
  attr {
    key: "_class"
    value {
      list {
        s: "loc:@dense_7/kernel"
      }
    }
  }
}
node {
  name: "dense_7/kernel"
  op: "VariableV2"
  attr {
    key: "_class"
    value {
      list {
        s: "loc:@dense_7/kernel"
      }
    }
  }
  attr {
    key: "container"
    value {
      s: ""
    }
  }
  attr {
    key: "dtype"
    value {
      type: DT_FLOAT
    }
  }
  attr {
    key: "shape"
    value {
      shape {
        dim {
          size: 10
        }
        dim {
          size: 1
        }
      }
    }
  }
  attr {
    key: "shared_name"
    value {
      s: ""
    }
  }
}
node {
  name: "dense_7/kernel/Assign"
  op: "Assign"
  input: "dense_7/kernel"
  input: "dense_7/kernel/Initializer/random_uniform"
  attr {
    key: "T"
    value {
      type: DT_FLOAT
    }
  }
  attr {
    key: "_class"
    value {
      list {
        s: "loc:@dense_7/kernel"
      }
    }
  }
  attr {
    key: "use_locking"
    value {
      b: true
    }
  }
  attr {
    key: "validate_shape"
    value {
      b: true
    }
  }
}
node {
  name: "dense_7/kernel/read"
  op: "Identity"
  input: "dense_7/kernel"
  attr {
    key: "T"
    value {
      type: DT_FLOAT
    }
  }
  attr {
    key: "_class"
    value {
      list {
        s: "loc:@dense_7/kernel"
      }
    }
  }
}
node {
  name: "dense_7/bias/Initializer/Const"
  op: "Const"
  attr {
    key: "_class"
    value {
      list {
        s: "loc:@dense_7/bias"
      }
    }
  }
  attr {
    key: "dtype"
    value {
      type: DT_FLOAT
    }
  }
  attr {
    key: "value"
    value {
      tensor {
        dtype: DT_FLOAT
        tensor_shape {
          dim {
            size: 1
          }
        }
        float_val: 0.0
      }
    }
  }
}
node {
  name: "dense_7/bias"
  op: "VariableV2"
  attr {
    key: "_class"
    value {
      list {
        s: "loc:@dense_7/bias"
      }
    }
  }
  attr {
    key: "container"
    value {
      s: ""
    }
  }
  attr {
    key: "dtype"
    value {
      type: DT_FLOAT
    }
  }
  attr {
    key: "shape"
    value {
      shape {
        dim {
          size: 1
        }
      }
    }
  }
  attr {
    key: "shared_name"
    value {
      s: ""
    }
  }
}
node {
  name: "dense_7/bias/Assign"
  op: "Assign"
  input: "dense_7/bias"
  input: "dense_7/bias/Initializer/Const"
  attr {
    key: "T"
    value {
      type: DT_FLOAT
    }
  }
  attr {
    key: "_class"
    value {
      list {
        s: "loc:@dense_7/bias"
      }
    }
  }
  attr {
    key: "use_locking"
    value {
      b: true
    }
  }
  attr {
    key: "validate_shape"
    value {
      b: true
    }
  }
}
node {
  name: "dense_7/bias/read"
  op: "Identity"
  input: "dense_7/bias"
  attr {
    key: "T"
    value {
      type: DT_FLOAT
    }
  }
  attr {
    key: "_class"
    value {
      list {
        s: "loc:@dense_7/bias"
      }
    }
  }
}
node {
  name: "dense_8/MatMul"
  op: "MatMul"
  input: "dense_7/BiasAdd"
  input: "dense_7/kernel/read"
  attr {
    key: "T"
    value {
      type: DT_FLOAT
    }
  }
  attr {
    key: "transpose_a"
    value {
      b: false
    }
  }
  attr {
    key: "transpose_b"
    value {
      b: false
    }
  }
}
node {
  name: "dense_8/BiasAdd"
  op: "BiasAdd"
  input: "dense_8/MatMul"
  input: "dense_7/bias/read"
  attr {
    key: "T"
    value {
      type: DT_FLOAT
    }
  }
  attr {
    key: "data_format"
    value {
      s: "NHWC"
    }
  }
}
node {
  name: "dense_8/Sigmoid"
  op: "Sigmoid"
  input: "dense_8/BiasAdd"
  attr {
    key: "T"
    value {
      type: DT_FLOAT
    }
  }
}
node {
  name: "ones_like/Shape"
  op: "Const"
  attr {
    key: "dtype"
    value {
      type: DT_INT32
    }
  }
  attr {
    key: "value"
    value {
      tensor {
        dtype: DT_INT32
        tensor_shape {
          dim {
            size: 2
          }
        }
        tensor_content: "d\000\000\000\001\000\000\000"
      }
    }
  }
}
node {
  name: "ones_like/Const"
  op: "Const"
  attr {
    key: "dtype"
    value {
      type: DT_FLOAT
    }
  }
  attr {
    key: "value"
    value {
      tensor {
        dtype: DT_FLOAT
        tensor_shape {
        }
        float_val: 1.0
      }
    }
  }
}
node {
  name: "ones_like"
  op: "Fill"
  input: "ones_like/Shape"
  input: "ones_like/Const"
  attr {
    key: "T"
    value {
      type: DT_FLOAT
    }
  }
}
node {
  name: "mean_squared_error/Sub"
  op: "Sub"
  input: "dense_8/Sigmoid"
  input: "ones_like"
  attr {
    key: "T"
    value {
      type: DT_FLOAT
    }
  }
}
node {
  name: "mean_squared_error/Square"
  op: "Square"
  input: "mean_squared_error/Sub"
  attr {
    key: "T"
    value {
      type: DT_FLOAT
    }
  }
}
node {
  name: "mean_squared_error/assert_broadcastable/weights"
  op: "Const"
  attr {
    key: "dtype"
    value {
      type: DT_FLOAT
    }
  }
  attr {
    key: "value"
    value {
      tensor {
        dtype: DT_FLOAT
        tensor_shape {
        }
        float_val: 1.0
      }
    }
  }
}
node {
  name: "mean_squared_error/assert_broadcastable/weights/shape"
  op: "Const"
  attr {
    key: "dtype"
    value {
      type: DT_INT32
    }
  }
  attr {
    key: "value"
    value {
      tensor {
        dtype: DT_INT32
        tensor_shape {
          dim {
          }
        }
      }
    }
  }
}
node {
  name: "mean_squared_error/assert_broadcastable/weights/rank"
  op: "Const"
  attr {
    key: "dtype"
    value {
      type: DT_INT32
    }
  }
  attr {
    key: "value"
    value {
      tensor {
        dtype: DT_INT32
        tensor_shape {
        }
        int_val: 0
      }
    }
  }
}
node {
  name: "mean_squared_error/assert_broadcastable/values/shape"
  op: "Const"
  attr {
    key: "dtype"
    value {
      type: DT_INT32
    }
  }
  attr {
    key: "value"
    value {
      tensor {
        dtype: DT_INT32
        tensor_shape {
          dim {
            size: 2
          }
        }
        tensor_content: "d\000\000\000\001\000\000\000"
      }
    }
  }
}
node {
  name: "mean_squared_error/assert_broadcastable/values/rank"
  op: "Const"
  attr {
    key: "dtype"
    value {
      type: DT_INT32
    }
  }
  attr {
    key: "value"
    value {
      tensor {
        dtype: DT_INT32
        tensor_shape {
        }
        int_val: 2
      }
    }
  }
}
node {
  name: "mean_squared_error/assert_broadcastable/static_scalar_check_success"
  op: "NoOp"
}
node {
  name: "mean_squared_error/ToFloat_3/x"
  op: "Const"
  input: "^mean_squared_error/assert_broadcastable/static_scalar_check_success"
  attr {
    key: "dtype"
    value {
      type: DT_FLOAT
    }
  }
  attr {
    key: "value"
    value {
      tensor {
        dtype: DT_FLOAT
        tensor_shape {
        }
        float_val: 1.0
      }
    }
  }
}
node {
  name: "mean_squared_error/Mul"
  op: "Mul"
  input: "mean_squared_error/Square"
  input: "mean_squared_error/ToFloat_3/x"
  attr {
    key: "T"
    value {
      type: DT_FLOAT
    }
  }
}
node {
  name: "mean_squared_error/Const"
  op: "Const"
  input: "^mean_squared_error/assert_broadcastable/static_scalar_check_success"
  attr {
    key: "dtype"
    value {
      type: DT_INT32
    }
  }
  attr {
    key: "value"
    value {
      tensor {
        dtype: DT_INT32
        tensor_shape {
          dim {
            size: 2
          }
        }
        tensor_content: "\000\000\000\000\001\000\000\000"
      }
    }
  }
}
node {
  name: "mean_squared_error/Sum"
  op: "Sum"
  input: "mean_squared_error/Mul"
  input: "mean_squared_error/Const"
  attr {
    key: "T"
    value {
      type: DT_FLOAT
    }
  }
  attr {
    key: "Tidx"
    value {
      type: DT_INT32
    }
  }
  attr {
    key: "keep_dims"
    value {
      b: false
    }
  }
}
node {
  name: "mean_squared_error/num_present/Equal/y"
  op: "Const"
  input: "^mean_squared_error/assert_broadcastable/static_scalar_check_success"
  attr {
    key: "dtype"
    value {
      type: DT_FLOAT
    }
  }
  attr {
    key: "value"
    value {
      tensor {
        dtype: DT_FLOAT
        tensor_shape {
        }
        float_val: 0.0
      }
    }
  }
}
node {
  name: "mean_squared_error/num_present/Equal"
  op: "Equal"
  input: "mean_squared_error/ToFloat_3/x"
  input: "mean_squared_error/num_present/Equal/y"
  attr {
    key: "T"
    value {
      type: DT_FLOAT
    }
  }
}
node {
  name: "mean_squared_error/num_present/zeros_like"
  op: "ZerosLike"
  input: "mean_squared_error/ToFloat_3/x"
  attr {
    key: "T"
    value {
      type: DT_FLOAT
    }
  }
}
node {
  name: "mean_squared_error/num_present/ones_like/Shape"
  op: "Const"
  input: "^mean_squared_error/assert_broadcastable/static_scalar_check_success"
  attr {
    key: "dtype"
    value {
      type: DT_INT32
    }
  }
  attr {
    key: "value"
    value {
      tensor {
        dtype: DT_INT32
        tensor_shape {
          dim {
          }
        }
      }
    }
  }
}
node {
  name: "mean_squared_error/num_present/ones_like/Const"
  op: "Const"
  input: "^mean_squared_error/assert_broadcastable/static_scalar_check_success"
  attr {
    key: "dtype"
    value {
      type: DT_FLOAT
    }
  }
  attr {
    key: "value"
    value {
      tensor {
        dtype: DT_FLOAT
        tensor_shape {
        }
        float_val: 1.0
      }
    }
  }
}
node {
  name: "mean_squared_error/num_present/ones_like"
  op: "Fill"
  input: "mean_squared_error/num_present/ones_like/Shape"
  input: "mean_squared_error/num_present/ones_like/Const"
  attr {
    key: "T"
    value {
      type: DT_FLOAT
    }
  }
}
node {
  name: "mean_squared_error/num_present/Select"
  op: "Select"
  input: "mean_squared_error/num_present/Equal"
  input: "mean_squared_error/num_present/zeros_like"
  input: "mean_squared_error/num_present/ones_like"
  attr {
    key: "T"
    value {
      type: DT_FLOAT
    }
  }
}
node {
  name: "mean_squared_error/num_present/broadcast_weights/assert_broadcastable/weights/shape"
  op: "Const"
  input: "^mean_squared_error/assert_broadcastable/static_scalar_check_success"
  attr {
    key: "dtype"
    value {
      type: DT_INT32
    }
  }
  attr {
    key: "value"
    value {
      tensor {
        dtype: DT_INT32
        tensor_shape {
          dim {
          }
        }
      }
    }
  }
}
node {
  name: "mean_squared_error/num_present/broadcast_weights/assert_broadcastable/weights/rank"
  op: "Const"
  input: "^mean_squared_error/assert_broadcastable/static_scalar_check_success"
  attr {
    key: "dtype"
    value {
      type: DT_INT32
    }
  }
  attr {
    key: "value"
    value {
      tensor {
        dtype: DT_INT32
        tensor_shape {
        }
        int_val: 0
      }
    }
  }
}
node {
  name: "mean_squared_error/num_present/broadcast_weights/assert_broadcastable/values/shape"
  op: "Const"
  input: "^mean_squared_error/assert_broadcastable/static_scalar_check_success"
  attr {
    key: "dtype"
    value {
      type: DT_INT32
    }
  }
  attr {
    key: "value"
    value {
      tensor {
        dtype: DT_INT32
        tensor_shape {
          dim {
            size: 2
          }
        }
        tensor_content: "d\000\000\000\001\000\000\000"
      }
    }
  }
}
node {
  name: "mean_squared_error/num_present/broadcast_weights/assert_broadcastable/values/rank"
  op: "Const"
  input: "^mean_squared_error/assert_broadcastable/static_scalar_check_success"
  attr {
    key: "dtype"
    value {
      type: DT_INT32
    }
  }
  attr {
    key: "value"
    value {
      tensor {
        dtype: DT_INT32
        tensor_shape {
        }
        int_val: 2
      }
    }
  }
}
node {
  name: "mean_squared_error/num_present/broadcast_weights/assert_broadcastable/static_scalar_check_success"
  op: "NoOp"
  input: "^mean_squared_error/assert_broadcastable/static_scalar_check_success"
}
node {
  name: "mean_squared_error/num_present/broadcast_weights/ones_like/Shape"
  op: "Const"
  input: "^mean_squared_error/assert_broadcastable/static_scalar_check_success"
  input: "^mean_squared_error/num_present/broadcast_weights/assert_broadcastable/static_scalar_check_success"
  attr {
    key: "dtype"
    value {
      type: DT_INT32
    }
  }
  attr {
    key: "value"
    value {
      tensor {
        dtype: DT_INT32
        tensor_shape {
          dim {
            size: 2
          }
        }
        tensor_content: "d\000\000\000\001\000\000\000"
      }
    }
  }
}
node {
  name: "mean_squared_error/num_present/broadcast_weights/ones_like/Const"
  op: "Const"
  input: "^mean_squared_error/assert_broadcastable/static_scalar_check_success"
  input: "^mean_squared_error/num_present/broadcast_weights/assert_broadcastable/static_scalar_check_success"
  attr {
    key: "dtype"
    value {
      type: DT_FLOAT
    }
  }
  attr {
    key: "value"
    value {
      tensor {
        dtype: DT_FLOAT
        tensor_shape {
        }
        float_val: 1.0
      }
    }
  }
}
node {
  name: "mean_squared_error/num_present/broadcast_weights/ones_like"
  op: "Fill"
  input: "mean_squared_error/num_present/broadcast_weights/ones_like/Shape"
  input: "mean_squared_error/num_present/broadcast_weights/ones_like/Const"
  attr {
    key: "T"
    value {
      type: DT_FLOAT
    }
  }
}
node {
  name: "mean_squared_error/num_present/broadcast_weights"
  op: "Mul"
  input: "mean_squared_error/num_present/Select"
  input: "mean_squared_error/num_present/broadcast_weights/ones_like"
  attr {
    key: "T"
    value {
      type: DT_FLOAT
    }
  }
}
node {
  name: "mean_squared_error/num_present/Const"
  op: "Const"
  input: "^mean_squared_error/assert_broadcastable/static_scalar_check_success"
  attr {
    key: "dtype"
    value {
      type: DT_INT32
    }
  }
  attr {
    key: "value"
    value {
      tensor {
        dtype: DT_INT32
        tensor_shape {
          dim {
            size: 2
          }
        }
        tensor_content: "\000\000\000\000\001\000\000\000"
      }
    }
  }
}
node {
  name: "mean_squared_error/num_present"
  op: "Sum"
  input: "mean_squared_error/num_present/broadcast_weights"
  input: "mean_squared_error/num_present/Const"
  attr {
    key: "T"
    value {
      type: DT_FLOAT
    }
  }
  attr {
    key: "Tidx"
    value {
      type: DT_INT32
    }
  }
  attr {
    key: "keep_dims"
    value {
      b: false
    }
  }
}
node {
  name: "mean_squared_error/Const_1"
  op: "Const"
  input: "^mean_squared_error/assert_broadcastable/static_scalar_check_success"
  attr {
    key: "dtype"
    value {
      type: DT_INT32
    }
  }
  attr {
    key: "value"
    value {
      tensor {
        dtype: DT_INT32
        tensor_shape {
          dim {
          }
        }
      }
    }
  }
}
node {
  name: "mean_squared_error/Sum_1"
  op: "Sum"
  input: "mean_squared_error/Sum"
  input: "mean_squared_error/Const_1"
  attr {
    key: "T"
    value {
      type: DT_FLOAT
    }
  }
  attr {
    key: "Tidx"
    value {
      type: DT_INT32
    }
  }
  attr {
    key: "keep_dims"
    value {
      b: false
    }
  }
}
node {
  name: "mean_squared_error/Greater/y"
  op: "Const"
  input: "^mean_squared_error/assert_broadcastable/static_scalar_check_success"
  attr {
    key: "dtype"
    value {
      type: DT_FLOAT
    }
  }
  attr {
    key: "value"
    value {
      tensor {
        dtype: DT_FLOAT
        tensor_shape {
        }
        float_val: 0.0
      }
    }
  }
}
node {
  name: "mean_squared_error/Greater"
  op: "Greater"
  input: "mean_squared_error/num_present"
  input: "mean_squared_error/Greater/y"
  attr {
    key: "T"
    value {
      type: DT_FLOAT
    }
  }
}
node {
  name: "mean_squared_error/Equal/y"
  op: "Const"
  input: "^mean_squared_error/assert_broadcastable/static_scalar_check_success"
  attr {
    key: "dtype"
    value {
      type: DT_FLOAT
    }
  }
  attr {
    key: "value"
    value {
      tensor {
        dtype: DT_FLOAT
        tensor_shape {
        }
        float_val: 0.0
      }
    }
  }
}
node {
  name: "mean_squared_error/Equal"
  op: "Equal"
  input: "mean_squared_error/num_present"
  input: "mean_squared_error/Equal/y"
  attr {
    key: "T"
    value {
      type: DT_FLOAT
    }
  }
}
node {
  name: "mean_squared_error/ones_like/Shape"
  op: "Const"
  input: "^mean_squared_error/assert_broadcastable/static_scalar_check_success"
  attr {
    key: "dtype"
    value {
      type: DT_INT32
    }
  }
  attr {
    key: "value"
    value {
      tensor {
        dtype: DT_INT32
        tensor_shape {
          dim {
          }
        }
      }
    }
  }
}
node {
  name: "mean_squared_error/ones_like/Const"
  op: "Const"
  input: "^mean_squared_error/assert_broadcastable/static_scalar_check_success"
  attr {
    key: "dtype"
    value {
      type: DT_FLOAT
    }
  }
  attr {
    key: "value"
    value {
      tensor {
        dtype: DT_FLOAT
        tensor_shape {
        }
        float_val: 1.0
      }
    }
  }
}
node {
  name: "mean_squared_error/ones_like"
  op: "Fill"
  input: "mean_squared_error/ones_like/Shape"
  input: "mean_squared_error/ones_like/Const"
  attr {
    key: "T"
    value {
      type: DT_FLOAT
    }
  }
}
node {
  name: "mean_squared_error/Select"
  op: "Select"
  input: "mean_squared_error/Equal"
  input: "mean_squared_error/ones_like"
  input: "mean_squared_error/num_present"
  attr {
    key: "T"
    value {
      type: DT_FLOAT
    }
  }
}
node {
  name: "mean_squared_error/div"
  op: "RealDiv"
  input: "mean_squared_error/Sum_1"
  input: "mean_squared_error/Select"
  attr {
    key: "T"
    value {
      type: DT_FLOAT
    }
  }
}
node {
  name: "mean_squared_error/zeros_like"
  op: "ZerosLike"
  input: "mean_squared_error/Sum_1"
  attr {
    key: "T"
    value {
      type: DT_FLOAT
    }
  }
}
node {
  name: "mean_squared_error/value"
  op: "Select"
  input: "mean_squared_error/Greater"
  input: "mean_squared_error/div"
  input: "mean_squared_error/zeros_like"
  attr {
    key: "T"
    value {
      type: DT_FLOAT
    }
  }
}
node {
  name: "gradients/Shape"
  op: "Const"
  attr {
    key: "dtype"
    value {
      type: DT_INT32
    }
  }
  attr {
    key: "value"
    value {
      tensor {
        dtype: DT_INT32
        tensor_shape {
          dim {
          }
        }
      }
    }
  }
}
node {
  name: "gradients/Const"
  op: "Const"
  attr {
    key: "dtype"
    value {
      type: DT_FLOAT
    }
  }
  attr {
    key: "value"
    value {
      tensor {
        dtype: DT_FLOAT
        tensor_shape {
        }
        float_val: 1.0
      }
    }
  }
}
node {
  name: "gradients/Fill"
  op: "Fill"
  input: "gradients/Shape"
  input: "gradients/Const"
  attr {
    key: "T"
    value {
      type: DT_FLOAT
    }
  }
}
node {
  name: "gradients/mean_squared_error/value_grad/zeros_like"
  op: "ZerosLike"
  input: "mean_squared_error/div"
  attr {
    key: "T"
    value {
      type: DT_FLOAT
    }
  }
}
node {
  name: "gradients/mean_squared_error/value_grad/Select"
  op: "Select"
  input: "mean_squared_error/Greater"
  input: "gradients/Fill"
  input: "gradients/mean_squared_error/value_grad/zeros_like"
  attr {
    key: "T"
    value {
      type: DT_FLOAT
    }
  }
}
node {
  name: "gradients/mean_squared_error/value_grad/Select_1"
  op: "Select"
  input: "mean_squared_error/Greater"
  input: "gradients/mean_squared_error/value_grad/zeros_like"
  input: "gradients/Fill"
  attr {
    key: "T"
    value {
      type: DT_FLOAT
    }
  }
}
node {
  name: "gradients/mean_squared_error/value_grad/tuple/group_deps"
  op: "NoOp"
  input: "^gradients/mean_squared_error/value_grad/Select"
  input: "^gradients/mean_squared_error/value_grad/Select_1"
}
node {
  name: "gradients/mean_squared_error/value_grad/tuple/control_dependency"
  op: "Identity"
  input: "gradients/mean_squared_error/value_grad/Select"
  input: "^gradients/mean_squared_error/value_grad/tuple/group_deps"
  attr {
    key: "T"
    value {
      type: DT_FLOAT
    }
  }
  attr {
    key: "_class"
    value {
      list {
        s: "loc:@gradients/mean_squared_error/value_grad/Select"
      }
    }
  }
}
node {
  name: "gradients/mean_squared_error/value_grad/tuple/control_dependency_1"
  op: "Identity"
  input: "gradients/mean_squared_error/value_grad/Select_1"
  input: "^gradients/mean_squared_error/value_grad/tuple/group_deps"
  attr {
    key: "T"
    value {
      type: DT_FLOAT
    }
  }
  attr {
    key: "_class"
    value {
      list {
        s: "loc:@gradients/mean_squared_error/value_grad/Select_1"
      }
    }
  }
}
node {
  name: "gradients/mean_squared_error/div_grad/Shape"
  op: "Const"
  attr {
    key: "dtype"
    value {
      type: DT_INT32
    }
  }
  attr {
    key: "value"
    value {
      tensor {
        dtype: DT_INT32
        tensor_shape {
          dim {
          }
        }
      }
    }
  }
}
node {
  name: "gradients/mean_squared_error/div_grad/Shape_1"
  op: "Const"
  attr {
    key: "dtype"
    value {
      type: DT_INT32
    }
  }
  attr {
    key: "value"
    value {
      tensor {
        dtype: DT_INT32
        tensor_shape {
          dim {
          }
        }
      }
    }
  }
}
node {
  name: "gradients/mean_squared_error/div_grad/BroadcastGradientArgs"
  op: "BroadcastGradientArgs"
  input: "gradients/mean_squared_error/div_grad/Shape"
  input: "gradients/mean_squared_error/div_grad/Shape_1"
  attr {
    key: "T"
    value {
      type: DT_INT32
    }
  }
}
node {
  name: "gradients/mean_squared_error/div_grad/RealDiv"
  op: "RealDiv"
  input: "gradients/mean_squared_error/value_grad/tuple/control_dependency"
  input: "mean_squared_error/Select"
  attr {
    key: "T"
    value {
      type: DT_FLOAT
    }
  }
}
node {
  name: "gradients/mean_squared_error/div_grad/Sum"
  op: "Sum"
  input: "gradients/mean_squared_error/div_grad/RealDiv"
  input: "gradients/mean_squared_error/div_grad/BroadcastGradientArgs"
  attr {
    key: "T"
    value {
      type: DT_FLOAT
    }
  }
  attr {
    key: "Tidx"
    value {
      type: DT_INT32
    }
  }
  attr {
    key: "keep_dims"
    value {
      b: false
    }
  }
}
node {
  name: "gradients/mean_squared_error/div_grad/Reshape"
  op: "Reshape"
  input: "gradients/mean_squared_error/div_grad/Sum"
  input: "gradients/mean_squared_error/div_grad/Shape"
  attr {
    key: "T"
    value {
      type: DT_FLOAT
    }
  }
  attr {
    key: "Tshape"
    value {
      type: DT_INT32
    }
  }
}
node {
  name: "gradients/mean_squared_error/div_grad/Neg"
  op: "Neg"
  input: "mean_squared_error/Sum_1"
  attr {
    key: "T"
    value {
      type: DT_FLOAT
    }
  }
}
node {
  name: "gradients/mean_squared_error/div_grad/RealDiv_1"
  op: "RealDiv"
  input: "gradients/mean_squared_error/div_grad/Neg"
  input: "mean_squared_error/Select"
  attr {
    key: "T"
    value {
      type: DT_FLOAT
    }
  }
}
node {
  name: "gradients/mean_squared_error/div_grad/RealDiv_2"
  op: "RealDiv"
  input: "gradients/mean_squared_error/div_grad/RealDiv_1"
  input: "mean_squared_error/Select"
  attr {
    key: "T"
    value {
      type: DT_FLOAT
    }
  }
}
node {
  name: "gradients/mean_squared_error/div_grad/mul"
  op: "Mul"
  input: "gradients/mean_squared_error/value_grad/tuple/control_dependency"
  input: "gradients/mean_squared_error/div_grad/RealDiv_2"
  attr {
    key: "T"
    value {
      type: DT_FLOAT
    }
  }
}
node {
  name: "gradients/mean_squared_error/div_grad/Sum_1"
  op: "Sum"
  input: "gradients/mean_squared_error/div_grad/mul"
  input: "gradients/mean_squared_error/div_grad/BroadcastGradientArgs:1"
  attr {
    key: "T"
    value {
      type: DT_FLOAT
    }
  }
  attr {
    key: "Tidx"
    value {
      type: DT_INT32
    }
  }
  attr {
    key: "keep_dims"
    value {
      b: false
    }
  }
}
node {
  name: "gradients/mean_squared_error/div_grad/Reshape_1"
  op: "Reshape"
  input: "gradients/mean_squared_error/div_grad/Sum_1"
  input: "gradients/mean_squared_error/div_grad/Shape_1"
  attr {
    key: "T"
    value {
      type: DT_FLOAT
    }
  }
  attr {
    key: "Tshape"
    value {
      type: DT_INT32
    }
  }
}
node {
  name: "gradients/mean_squared_error/div_grad/tuple/group_deps"
  op: "NoOp"
  input: "^gradients/mean_squared_error/div_grad/Reshape"
  input: "^gradients/mean_squared_error/div_grad/Reshape_1"
}
node {
  name: "gradients/mean_squared_error/div_grad/tuple/control_dependency"
  op: "Identity"
  input: "gradients/mean_squared_error/div_grad/Reshape"
  input: "^gradients/mean_squared_error/div_grad/tuple/group_deps"
  attr {
    key: "T"
    value {
      type: DT_FLOAT
    }
  }
  attr {
    key: "_class"
    value {
      list {
        s: "loc:@gradients/mean_squared_error/div_grad/Reshape"
      }
    }
  }
}
node {
  name: "gradients/mean_squared_error/div_grad/tuple/control_dependency_1"
  op: "Identity"
  input: "gradients/mean_squared_error/div_grad/Reshape_1"
  input: "^gradients/mean_squared_error/div_grad/tuple/group_deps"
  attr {
    key: "T"
    value {
      type: DT_FLOAT
    }
  }
  attr {
    key: "_class"
    value {
      list {
        s: "loc:@gradients/mean_squared_error/div_grad/Reshape_1"
      }
    }
  }
}
node {
  name: "gradients/mean_squared_error/Sum_1_grad/Reshape/shape"
  op: "Const"
  attr {
    key: "dtype"
    value {
      type: DT_INT32
    }
  }
  attr {
    key: "value"
    value {
      tensor {
        dtype: DT_INT32
        tensor_shape {
          dim {
          }
        }
      }
    }
  }
}
node {
  name: "gradients/mean_squared_error/Sum_1_grad/Reshape"
  op: "Reshape"
  input: "gradients/mean_squared_error/div_grad/tuple/control_dependency"
  input: "gradients/mean_squared_error/Sum_1_grad/Reshape/shape"
  attr {
    key: "T"
    value {
      type: DT_FLOAT
    }
  }
  attr {
    key: "Tshape"
    value {
      type: DT_INT32
    }
  }
}
node {
  name: "gradients/mean_squared_error/Sum_1_grad/Tile/multiples"
  op: "Const"
  attr {
    key: "dtype"
    value {
      type: DT_INT32
    }
  }
  attr {
    key: "value"
    value {
      tensor {
        dtype: DT_INT32
        tensor_shape {
          dim {
          }
        }
      }
    }
  }
}
node {
  name: "gradients/mean_squared_error/Sum_1_grad/Tile"
  op: "Tile"
  input: "gradients/mean_squared_error/Sum_1_grad/Reshape"
  input: "gradients/mean_squared_error/Sum_1_grad/Tile/multiples"
  attr {
    key: "T"
    value {
      type: DT_FLOAT
    }
  }
  attr {
    key: "Tmultiples"
    value {
      type: DT_INT32
    }
  }
}
node {
  name: "gradients/mean_squared_error/Sum_grad/Reshape/shape"
  op: "Const"
  attr {
    key: "dtype"
    value {
      type: DT_INT32
    }
  }
  attr {
    key: "value"
    value {
      tensor {
        dtype: DT_INT32
        tensor_shape {
          dim {
            size: 2
          }
        }
        tensor_content: "\001\000\000\000\001\000\000\000"
      }
    }
  }
}
node {
  name: "gradients/mean_squared_error/Sum_grad/Reshape"
  op: "Reshape"
  input: "gradients/mean_squared_error/Sum_1_grad/Tile"
  input: "gradients/mean_squared_error/Sum_grad/Reshape/shape"
  attr {
    key: "T"
    value {
      type: DT_FLOAT
    }
  }
  attr {
    key: "Tshape"
    value {
      type: DT_INT32
    }
  }
}
node {
  name: "gradients/mean_squared_error/Sum_grad/Tile/multiples"
  op: "Const"
  attr {
    key: "dtype"
    value {
      type: DT_INT32
    }
  }
  attr {
    key: "value"
    value {
      tensor {
        dtype: DT_INT32
        tensor_shape {
          dim {
            size: 2
          }
        }
        tensor_content: "d\000\000\000\001\000\000\000"
      }
    }
  }
}
node {
  name: "gradients/mean_squared_error/Sum_grad/Tile"
  op: "Tile"
  input: "gradients/mean_squared_error/Sum_grad/Reshape"
  input: "gradients/mean_squared_error/Sum_grad/Tile/multiples"
  attr {
    key: "T"
    value {
      type: DT_FLOAT
    }
  }
  attr {
    key: "Tmultiples"
    value {
      type: DT_INT32
    }
  }
}
node {
  name: "gradients/mean_squared_error/Mul_grad/Shape"
  op: "Const"
  attr {
    key: "dtype"
    value {
      type: DT_INT32
    }
  }
  attr {
    key: "value"
    value {
      tensor {
        dtype: DT_INT32
        tensor_shape {
          dim {
            size: 2
          }
        }
        tensor_content: "d\000\000\000\001\000\000\000"
      }
    }
  }
}
node {
  name: "gradients/mean_squared_error/Mul_grad/Shape_1"
  op: "Const"
  attr {
    key: "dtype"
    value {
      type: DT_INT32
    }
  }
  attr {
    key: "value"
    value {
      tensor {
        dtype: DT_INT32
        tensor_shape {
          dim {
          }
        }
      }
    }
  }
}
node {
  name: "gradients/mean_squared_error/Mul_grad/BroadcastGradientArgs"
  op: "BroadcastGradientArgs"
  input: "gradients/mean_squared_error/Mul_grad/Shape"
  input: "gradients/mean_squared_error/Mul_grad/Shape_1"
  attr {
    key: "T"
    value {
      type: DT_INT32
    }
  }
}
node {
  name: "gradients/mean_squared_error/Mul_grad/mul"
  op: "Mul"
  input: "gradients/mean_squared_error/Sum_grad/Tile"
  input: "mean_squared_error/ToFloat_3/x"
  attr {
    key: "T"
    value {
      type: DT_FLOAT
    }
  }
}
node {
  name: "gradients/mean_squared_error/Mul_grad/Sum"
  op: "Sum"
  input: "gradients/mean_squared_error/Mul_grad/mul"
  input: "gradients/mean_squared_error/Mul_grad/BroadcastGradientArgs"
  attr {
    key: "T"
    value {
      type: DT_FLOAT
    }
  }
  attr {
    key: "Tidx"
    value {
      type: DT_INT32
    }
  }
  attr {
    key: "keep_dims"
    value {
      b: false
    }
  }
}
node {
  name: "gradients/mean_squared_error/Mul_grad/Reshape"
  op: "Reshape"
  input: "gradients/mean_squared_error/Mul_grad/Sum"
  input: "gradients/mean_squared_error/Mul_grad/Shape"
  attr {
    key: "T"
    value {
      type: DT_FLOAT
    }
  }
  attr {
    key: "Tshape"
    value {
      type: DT_INT32
    }
  }
}
node {
  name: "gradients/mean_squared_error/Mul_grad/mul_1"
  op: "Mul"
  input: "mean_squared_error/Square"
  input: "gradients/mean_squared_error/Sum_grad/Tile"
  attr {
    key: "T"
    value {
      type: DT_FLOAT
    }
  }
}
node {
  name: "gradients/mean_squared_error/Mul_grad/Sum_1"
  op: "Sum"
  input: "gradients/mean_squared_error/Mul_grad/mul_1"
  input: "gradients/mean_squared_error/Mul_grad/BroadcastGradientArgs:1"
  attr {
    key: "T"
    value {
      type: DT_FLOAT
    }
  }
  attr {
    key: "Tidx"
    value {
      type: DT_INT32
    }
  }
  attr {
    key: "keep_dims"
    value {
      b: false
    }
  }
}
node {
  name: "gradients/mean_squared_error/Mul_grad/Reshape_1"
  op: "Reshape"
  input: "gradients/mean_squared_error/Mul_grad/Sum_1"
  input: "gradients/mean_squared_error/Mul_grad/Shape_1"
  attr {
    key: "T"
    value {
      type: DT_FLOAT
    }
  }
  attr {
    key: "Tshape"
    value {
      type: DT_INT32
    }
  }
}
node {
  name: "gradients/mean_squared_error/Mul_grad/tuple/group_deps"
  op: "NoOp"
  input: "^gradients/mean_squared_error/Mul_grad/Reshape"
  input: "^gradients/mean_squared_error/Mul_grad/Reshape_1"
}
node {
  name: "gradients/mean_squared_error/Mul_grad/tuple/control_dependency"
  op: "Identity"
  input: "gradients/mean_squared_error/Mul_grad/Reshape"
  input: "^gradients/mean_squared_error/Mul_grad/tuple/group_deps"
  attr {
    key: "T"
    value {
      type: DT_FLOAT
    }
  }
  attr {
    key: "_class"
    value {
      list {
        s: "loc:@gradients/mean_squared_error/Mul_grad/Reshape"
      }
    }
  }
}
node {
  name: "gradients/mean_squared_error/Mul_grad/tuple/control_dependency_1"
  op: "Identity"
  input: "gradients/mean_squared_error/Mul_grad/Reshape_1"
  input: "^gradients/mean_squared_error/Mul_grad/tuple/group_deps"
  attr {
    key: "T"
    value {
      type: DT_FLOAT
    }
  }
  attr {
    key: "_class"
    value {
      list {
        s: "loc:@gradients/mean_squared_error/Mul_grad/Reshape_1"
      }
    }
  }
}
node {
  name: "gradients/mean_squared_error/Square_grad/mul/x"
  op: "Const"
  input: "^gradients/mean_squared_error/Mul_grad/tuple/control_dependency"
  attr {
    key: "dtype"
    value {
      type: DT_FLOAT
    }
  }
  attr {
    key: "value"
    value {
      tensor {
        dtype: DT_FLOAT
        tensor_shape {
        }
        float_val: 2.0
      }
    }
  }
}
node {
  name: "gradients/mean_squared_error/Square_grad/mul"
  op: "Mul"
  input: "gradients/mean_squared_error/Square_grad/mul/x"
  input: "mean_squared_error/Sub"
  attr {
    key: "T"
    value {
      type: DT_FLOAT
    }
  }
}
node {
  name: "gradients/mean_squared_error/Square_grad/mul_1"
  op: "Mul"
  input: "gradients/mean_squared_error/Mul_grad/tuple/control_dependency"
  input: "gradients/mean_squared_error/Square_grad/mul"
  attr {
    key: "T"
    value {
      type: DT_FLOAT
    }
  }
}
node {
  name: "gradients/mean_squared_error/Sub_grad/Shape"
  op: "Const"
  attr {
    key: "dtype"
    value {
      type: DT_INT32
    }
  }
  attr {
    key: "value"
    value {
      tensor {
        dtype: DT_INT32
        tensor_shape {
          dim {
            size: 2
          }
        }
        tensor_content: "d\000\000\000\001\000\000\000"
      }
    }
  }
}
node {
  name: "gradients/mean_squared_error/Sub_grad/Shape_1"
  op: "Const"
  attr {
    key: "dtype"
    value {
      type: DT_INT32
    }
  }
  attr {
    key: "value"
    value {
      tensor {
        dtype: DT_INT32
        tensor_shape {
          dim {
            size: 2
          }
        }
        tensor_content: "d\000\000\000\001\000\000\000"
      }
    }
  }
}
node {
  name: "gradients/mean_squared_error/Sub_grad/BroadcastGradientArgs"
  op: "BroadcastGradientArgs"
  input: "gradients/mean_squared_error/Sub_grad/Shape"
  input: "gradients/mean_squared_error/Sub_grad/Shape_1"
  attr {
    key: "T"
    value {
      type: DT_INT32
    }
  }
}
node {
  name: "gradients/mean_squared_error/Sub_grad/Sum"
  op: "Sum"
  input: "gradients/mean_squared_error/Square_grad/mul_1"
  input: "gradients/mean_squared_error/Sub_grad/BroadcastGradientArgs"
  attr {
    key: "T"
    value {
      type: DT_FLOAT
    }
  }
  attr {
    key: "Tidx"
    value {
      type: DT_INT32
    }
  }
  attr {
    key: "keep_dims"
    value {
      b: false
    }
  }
}
node {
  name: "gradients/mean_squared_error/Sub_grad/Reshape"
  op: "Reshape"
  input: "gradients/mean_squared_error/Sub_grad/Sum"
  input: "gradients/mean_squared_error/Sub_grad/Shape"
  attr {
    key: "T"
    value {
      type: DT_FLOAT
    }
  }
  attr {
    key: "Tshape"
    value {
      type: DT_INT32
    }
  }
}
node {
  name: "gradients/mean_squared_error/Sub_grad/Sum_1"
  op: "Sum"
  input: "gradients/mean_squared_error/Square_grad/mul_1"
  input: "gradients/mean_squared_error/Sub_grad/BroadcastGradientArgs:1"
  attr {
    key: "T"
    value {
      type: DT_FLOAT
    }
  }
  attr {
    key: "Tidx"
    value {
      type: DT_INT32
    }
  }
  attr {
    key: "keep_dims"
    value {
      b: false
    }
  }
}
node {
  name: "gradients/mean_squared_error/Sub_grad/Neg"
  op: "Neg"
  input: "gradients/mean_squared_error/Sub_grad/Sum_1"
  attr {
    key: "T"
    value {
      type: DT_FLOAT
